{
  "version": "1.0",
  "truncation": null,
  "padding": null,
  "added_tokens": [
    {
      "id": 0,
      "content": "<|endoftext|>",
      "single_word": false,
      "lstrip": false,
      "rstrip": false,
      "normalized": false,
      "special": true
    }
  ],
  "normalizer": null,
  "pre_tokenizer": null,
  "post_processor": null,
  "decoder": null,
  "model": {
    "type": "BPE",
    "dropout": null,
    "unk_token": null,
    "continuing_subword_prefix": null,
    "end_of_word_suffix": null,
    "fuse_unk": false,
    "byte_fallback": false,
    "ignore_merges": false,
    "vocab": {
      "<|endoftext|>": 0,
      "\n": 1,
      " ": 2,
      "!": 3,
      "\"": 4,
      "'": 5,
      ",": 6,
      "-": 7,
      ".": 8,
      "/": 9,
      "0": 10,
      "1": 11,
      "2": 12,
      "3": 13,
      "4": 14,
      "5": 15,
      "6": 16,
      "7": 17,
      "8": 18,
      "9": 19,
      ":": 20,
      ";": 21,
      "<": 22,
      "=": 23,
      ">": 24,
      "?": 25,
      "A": 26,
      "B": 27,
      "C": 28,
      "D": 29,
      "E": 30,
      "F": 31,
      "G": 32,
      "H": 33,
      "I": 34,
      "J": 35,
      "K": 36,
      "L": 37,
      "M": 38,
      "N": 39,
      "O": 40,
      "P": 41,
      "Q": 42,
      "R": 43,
      "S": 44,
      "T": 45,
      "U": 46,
      "V": 47,
      "W": 48,
      "X": 49,
      "Y": 50,
      "Z": 51,
      "`": 52,
      "a": 53,
      "b": 54,
      "c": 55,
      "d": 56,
      "e": 57,
      "f": 58,
      "g": 59,
      "h": 60,
      "i": 61,
      "j": 62,
      "k": 63,
      "l": 64,
      "m": 65,
      "n": 66,
      "o": 67,
      "p": 68,
      "q": 69,
      "r": 70,
      "s": 71,
      "t": 72,
      "u": 73,
      "v": 74,
      "w": 75,
      "x": 76,
      "y": 77,
      "z": 78,
      "|": 79,
      "": 80,
      "": 81,
      "": 82,
      "é": 83,
      "ñ": 84,
      "–": 85,
      "—": 86,
      "‘": 87,
      "’": 88,
      "“": 89,
      "”": 90,
      "…": 91,
      "e ": 92,
      "d ": 93,
      "th": 94,
      " a": 95,
      ". ": 96,
      "t ": 97,
      "y ": 98,
      "s ": 99,
      "nd ": 100,
      "to": 101,
      "er": 102,
      "ed ": 103,
      "the ": 104,
      ", ": 105,
      "wa": 106,
      "in": 107,
      "en": 108,
      "he ": 109,
      "to ": 110,
      "ou": 111,
      " and ": 112,
      ". T": 113,
      "ha": 114,
      " a ": 115,
      "om": 116,
      "sa": 117,
      "ar": 118,
      " the ": 119,
      "he": 120,
      "im": 121,
      "on": 122,
      ".\n": 123,
      "g ": 124,
      "ll": 125,
      "was ": 126,
      "an": 127,
      "or": 128,
      "ay": 129,
      "it": 130,
      "er ": 131,
      "id": 132,
      "do": 133,
      "re": 134,
      "is ": 135,
      "pl": 136,
      "ir": 137,
      "am": 138,
      "ed to ": 139,
      "il": 140,
      "wi": 141,
      "the": 142,
      "ri": 143,
      "st": 144,
      "lo": 145,
      "and ": 146,
      ". H": 147,
      "a ": 148,
      "hey ": 149,
      ". S": 150,
      " h": 151,
      "no": 152,
      ". He ": 153,
      "at ": 154,
      ". They ": 155,
      "ere ": 156,
      "with": 157,
      "un": 158,
      "On": 159,
      "ing ": 160,
      "o ": 161,
      "pp": 162,
      "ver": 163,
      ". The ": 164,
      "ex": 165,
      "ck": 166,
      "li": 167,
      "bi": 168,
      "ll ": 169,
      "\" ": 170,
      "le": 171,
      "day": 172,
      ", \"": 173,
      ". She ": 174,
      "be": 175,
      "it ": 176,
      "ut ": 177,
      "w ": 178,
      "om ": 179,
      "ok": 180,
      "you": 181,
      "said": 182,
      "ft": 183,
      "ma": 184,
      "ing": 185,
      "le ": 186,
      "ld ": 187,
      "bo": 188,
      "se": 189,
      "happ": 190,
      "im ": 191,
      "end": 192,
      "fri": 193,
      "ba": 194,
      "gh": 195,
      "up": 196,
      "ay ": 197,
      "sh": 198,
      "ch": 199,
      "very ": 200,
      "an ": 201,
      "ed": 202,
      "for": 203,
      "of": 204,
      "was": 205,
      "l ": 206,
      "wan": 207,
      "had ": 208,
      "ce ": 209,
      "en ": 210,
      "big ": 211,
      "itt": 212,
      "ext": 213,
      "friend": 214,
      "<|": 215,
      ">\n": 216,
      "|>\n": 217,
      "endo": 218,
      "ftext": 219,
      "<|endo": 220,
      "ftext|>\n": 221,
      "<|endoftext|>\n": 222,
      "ne": 223,
      "said, \"": 224,
      "e, ": 225,
      "they ": 226,
      "Lil": 227,
      "ve ": 228,
      "ro": 229,
      "play": 230,
      "ted to ": 231,
      "not ": 232,
      "One ": 233,
      ". I": 234,
      "ge": 235,
      "ittle ": 236,
      "was a ": 237,
      "ke ": 238,
      "little ": 239,
      "tim": 240,
      "his ": 241,
      "'s ": 242,
      "at": 243,
      "es": 244,
      "that ": 245,
      "One day": 246,
      "nam": 247,
      "ould ": 248,
      "car": 249,
      "in the ": 250,
      "id ": 251,
      "she ": 252,
      "named ": 253,
      "ra": 254,
      "go": 255,
      "were ": 256,
      "there ": 257,
      "The ": 258,
      "y and ": 259,
      "to the ": 260,
      "ther": 261,
      "her ": 262,
      "ent ": 263,
      "bir": 264,
      "ed and ": 265,
      "so ": 266,
      "\"\n": 267,
      "play ": 268,
      "on a ": 269,
      "wh": 270,
      "fe": 271,
      "saw": 272,
      ", and ": 273,
      "wanted to ": 274,
      "hel": 275,
      "you ": 276,
      "re ": 277,
      "se ": 278,
      "Once ": 279,
      "but ": 280,
      "fi": 281,
      "went ": 282,
      "help": 283,
      " his ": 284,
      "ed the ": 285,
      "ound ": 286,
      "I ": 287,
      "with ": 288,
      "upon a ": 289,
      "look": 290,
      "Once upon a ": 291,
      "Once upon a tim": 292,
      "y a": 293,
      "! ": 294,
      "Tim ": 295,
      "there was a ": 296,
      "po": 297,
      "sk": 298,
      "fun": 299,
      "ta": 300,
      "la": 301,
      "ca": 302,
      ". It ": 303,
      "Tim": 304,
      "ea": 305,
      "Once upon a time, ": 306,
      "ur": 307,
      "One day, ": 308,
      "be ": 309,
      "toge": 310,
      "som": 311,
      ", but ": 312,
      "s and ": 313,
      "of ": 314,
      "Lily ": 315,
      "tre": 316,
      "st ": 317,
      "!\" ": 318,
      " her ": 319,
      "k ": 320,
      "ck ": 321,
      "ame ": 322,
      ", a ": 323,
      "par": 324,
      "et": 325,
      "bird ": 326,
      "ir ": 327,
      "my ": 328,
      "m ": 329,
      "was very ": 330,
      "sm": 331,
      "co": 332,
      "gir": 333,
      "came ": 334,
      "mom ": 335,
      "ec": 336,
      "wn": 337,
      ". B": 338,
      "fu": 339,
      "saw a ": 340,
      "e and ": 341,
      "mom": 342,
      "ga": 343,
      "their ": 344,
      "tt": 345,
      "t the ": 346,
      "new ": 347,
      "on the ": 348,
      "Once upon a time, there was a ": 349,
      "lov": 350,
      "ic": 351,
      "ch ": 352,
      "friends": 353,
      "y, ": 354,
      "'t ": 355,
      "did ": 356,
      "played ": 357,
      "for ": 358,
      "Ma": 359,
      "is": 360,
      "together": 361,
      "could ": 362,
      ".\" ": 363,
      "um": 364,
      "Max": 365,
      ".\"\n": 366,
      "ough": 367,
      ". Tim ": 368,
      "girl ": 369,
      ". A": 370,
      "had a ": 371,
      "have ": 372,
      "fa": 373,
      "t to ": 374,
      "ue ": 375,
      "happy": 376,
      "can ": 377,
      "smil": 378,
      "es ": 379,
      "star": 380,
      "found ": 381,
      "bu": 382,
      "sid": 383,
      "lik": 384,
      "mor": 385,
      "ow": 386,
      "looked ": 387,
      "way": 388,
      "in ": 389,
      "sto": 390,
      "boy ": 391,
      "did not ": 392,
      "happy ": 393,
      "al": 394,
      "said ": 395,
      "Tom": 396,
      "fr": 397,
      "nd": 398,
      "on ": 399,
      "toy": 400,
      "Tom ": 401,
      "would ": 402,
      "ther ": 403,
      "e.\n": 404,
      ". \"": 405,
      "some": 406,
      "fel": 407,
      "out": 408,
      "ho": 409,
      "hat ": 410,
      " an": 411,
      "dog ": 412,
      "like ": 413,
      "day ": 414,
      "od ": 415,
      "You": 416,
      "rea": 417,
      "cat ": 418,
      "thing ": 419,
      "el": 420,
      "wor": 421,
      "ball": 422,
      "p ": 423,
      "lk": 424,
      "sp": 425,
      "gr": 426,
      "with the ": 427,
      "r ": 428,
      "Sam": 429,
      "sma": 430,
      "one ": 431,
      "big": 432,
      "scar": 433,
      "wat": 434,
      "make ": 435,
      "ke": 436,
      "felt ": 437,
      "sha": 438,
      "?\" ": 439,
      "thing": 440,
      "dd": 441,
      "One day, a ": 442,
      "de ": 443,
      "ent": 444,
      "ved ": 445,
      "Wh": 446,
      "of the ": 447,
      "loved to ": 448,
      "mu": 449,
      "though": 450,
      "was so ": 451,
      "o, ": 452,
      "pi": 453,
      "igh": 454,
      "me": 455,
      "started to ": 456,
      ". One day, ": 457,
      "in a ": 458,
      "man": 459,
      "little girl ": 460,
      ". But ": 461,
      "ug": 462,
      "out ": 463,
      "see ": 464,
      "park": 465,
      "too": 466,
      "ugh": 467,
      "made ": 468,
      "tr": 469,
      "tri": 470,
      "pa": 471,
      "liked to ": 472,
      "find ": 473,
      ", the ": 474,
      "com": 475,
      "Max ": 476,
      "with his ": 477,
      "ell": 478,
      "cat": 479,
      "Mi": 480,
      "down": 481,
      "arn": 482,
      "ob": 483,
      "box": 484,
      "it was ": 485,
      "s.\n": 486,
      "something ": 487,
      " are ": 488,
      "them": 489,
      "friends ": 490,
      "They ": 491,
      "took": 492,
      "fun ": 493,
      "fo": 494,
      "uc": 495,
      "want to ": 496,
      "go ": 497,
      "gain": 498,
      "ly ": 499,
      "kno": 500,
      "sad": 501,
      "say": 502,
      "help ": 503,
      "learn": 504,
      "saw ": 505,
      "found a ": 506,
      "put ": 507,
      "ong": 508,
      "gre": 509,
      "walk": 510,
      "pre": 511,
      "use ": 512,
      "op": 513,
      "toy ": 514,
      "pu": 515,
      "f ": 516,
      "sun": 517,
      "lived ": 518,
      "boy named ": 519,
      "ever": 520,
      "good ": 521,
      "all": 522,
      "hey a": 523,
      "qu": 524,
      "bird": 525,
      "ful ": 526,
      " and the ": 527,
      ". \n": 528,
      "will ": 529,
      "Spo": 530,
      "pr": 531,
      "ver ": 532,
      "od": 533,
      "br": 534,
      "red ": 535,
      "di": 536,
      "th ": 537,
      "Luc": 538,
      "ted ": 539,
      "some ": 540,
      "back ": 541,
      "Lily": 542,
      "n't ": 543,
      "en, ": 544,
      "gi": 545,
      "your ": 546,
      "happy and ": 547,
      "her": 548,
      "der": 549,
      "na": 550,
      "ti": 551,
      "Su": 552,
      "laugh": 553,
      ". They a": 554,
      "ts ": 555,
      "pe": 556,
      "other": 557,
      "d and ": 558,
      "sw": 559,
      ",\" ": 560,
      "flo": 561,
      "when ": 562,
      "small ": 563,
      "han": 564,
      "what ": 565,
      "playing ": 566,
      "!\"\n": 567,
      " all ": 568,
      "ask": 569,
      "him": 570,
      "them ": 571,
      "al ": 572,
      "sti": 573,
      "ld": 574,
      "Sue ": 575,
      "ow ": 576,
      "smiled and ": 577,
      "dec": 578,
      "ound": 579,
      "Mom": 580,
      "many ": 581,
      "play with ": 582,
      "ny ": 583,
      "we ": 584,
      "dog": 585,
      "ball ": 586,
      "You ": 587,
      ". They were ": 588,
      "so": 589,
      "who ": 590,
      "ed her ": 591,
      "tree": 592,
      "es, ": 593,
      "ce": 594,
      "ar ": 595,
      "ice ": 596,
      ". I ": 597,
      "t's ": 598,
      "mo": 599,
      "cit": 600,
      "cause ": 601,
      "became ": 602,
      "ump": 603,
      "went to the ": 604,
      "ry ": 605,
      "thought ": 606,
      "decid": 607,
      "clo": 608,
      " a big ": 609,
      "Ben ": 610,
      "back": 611,
      "da": 612,
      "little girl named ": 613,
      "hou": 614,
      "because ": 615,
      "lu": 616,
      "saw a big ": 617,
      "ed his ": 618,
      "sh ": 619,
      "outsid": 620,
      "ff": 621,
      "on't ": 622,
      "ss": 623,
      "excit": 624,
      "ways ": 625,
      " ar": 626,
      "end ": 627,
      "We ": 628,
      "with her ": 629,
      "knew ": 630,
      "big, ": 631,
      "ed that ": 632,
      "hom": 633,
      "ble": 634,
      "ran": 635,
      "best ": 636,
      "from": 637,
      "ry": 638,
      " and said, \"": 639,
      "too ": 640,
      "run": 641,
      "sor": 642,
      "both ": 643,
      "But ": 644,
      "pri": 645,
      "ard": 646,
      "cou": 647,
      "man ": 648,
      "hear": 649,
      "lea": 650,
      "sur": 651,
      "got ": 652,
      "tried to ": 653,
      " al": 654,
      "room": 655,
      "e the ": 656,
      "ran ": 657,
      " ab": 658,
      "lou": 659,
      "Let": 660,
      "decided to ": 661,
      "si": 662,
      "on, ": 663,
      "do ": 664,
      "pla": 665,
      "day, ": 666,
      "ju": 667,
      "each ": 668,
      "Sam ": 669,
      "told ": 670,
      "for a ": 671,
      "Mia ": 672,
      "insid": 673,
      "e to ": 674,
      "care": 675,
      "saw the ": 676,
      ". Tom ": 677,
      " ask": 678,
      "one": 679,
      "er and ": 680,
      "cle": 681,
      "gave ": 682,
      "prett": 683,
      ". F": 684,
      "Let's ": 685,
      "cre": 686,
      "more ": 687,
      ". And ": 688,
      ". Lily ": 689,
      "Lily and ": 690,
      "ind ": 691,
      "surpri": 692,
      "open": 693,
      "Ben": 694,
      "rab": 695,
      "and": 696,
      "than": 697,
      "ep": 698,
      "at the ": 699,
      "up ": 700,
      "jump": 701,
      "ful": 702,
      "An": 703,
      "wer": 704,
      "happen": 705,
      "hug": 706,
      ". The bird ": 707,
      "tur": 708,
      "was not ": 709,
      "har": 710,
      "y.\n": 711,
      "did": 712,
      "shin": 713,
      "s, ": 714,
      "che": 715,
      "Bob": 716,
      " away": 717,
      "other ": 718,
      "Yes, ": 719,
      "happy to ": 720,
      "ght": 721,
      "fast": 722,
      "every ": 723,
      "little boy named ": 724,
      "take ": 725,
      "ed.\n": 726,
      "together ": 727,
      "su": 728,
      "?\"\n": 729,
      "way ": 730,
      "show": 731,
      "ill": 732,
      "When ": 733,
      " again": 734,
      "not": 735,
      "Can ": 736,
      "old ": 737,
      "Lucy ": 738,
      "get ": 739,
      "every": 740,
      "by ": 741,
      "jo": 742,
      "imal": 743,
      "they a": 744,
      "hank ": 745,
      "this ": 746,
      "ve": 747,
      ". Th": 748,
      "om that ": 749,
      "for the ": 750,
      "str": 751,
      "tter": 752,
      "ing and ": 753,
      "n ": 754,
      "know ": 755,
      "cu": 756,
      "its ": 757,
      "s. They ": 758,
      " all": 759,
      "bea": 760,
      "we": 761,
      "they were ": 762,
      "could not ": 763,
      ". E": 764,
      "went to ": 765,
      "ite ": 766,
      "spec": 767,
      ". It was ": 768,
      ", but he ": 769,
      "ev": 770,
      "pped ": 771,
      "de": 772,
      "mou": 773,
      "om that day ": 774,
      "ly": 775,
      "war": 776,
      "ong ": 777,
      "him ": 778,
      "fle": 779,
      "list": 780,
      "under": 781,
      "tree ": 782,
      "Tim and ": 783,
      "cked ": 784,
      "with a ": 785,
      "things ": 786,
      "you, ": 787,
      "t and ": 788,
      "said, \"I ": 789,
      "cl": 790,
      "ily ": 791,
      "Thank ": 792,
      "happy.\n": 793,
      " him": 794,
      "ple ": 795,
      "didn't ": 796,
      " hom": 797,
      "tu": 798,
      "e. He ": 799,
      "me ": 800,
      "my": 801,
      "exp": 802,
      "idea": 803,
      "scared": 804,
      "ing the ": 805,
      "heard ": 806,
      "He ": 807,
      "work": 808,
      "can": 809,
      "es and ": 810,
      "speci": 811,
      "dan": 812,
      "near": 813,
      "s. He ": 814,
      "or ": 815,
      " at the ": 816,
      ". You ": 817,
      "fter": 818,
      "from the ": 819,
      "ts of ": 820,
      "each other": 821,
      ", he ": 822,
      "bl": 823,
      "friend ": 824,
      "thank": 825,
      "every day": 826,
      "house": 827,
      "Sar": 828,
      "small": 829,
      "'s mom ": 830,
      "dy ": 831,
      "lled ": 832,
      "et ": 833,
      "ble ": 834,
      "happened": 835,
      "lots of ": 836,
      "rock": 837,
      "friends.\n": 838,
      "ymor": 839,
      " around ": 840,
      "ed, \"": 841,
      "if ": 842,
      "dden": 843,
      "Spot ": 844,
      "never ": 845,
      "te": 846,
      "Once upon a time, in a ": 847,
      ". Tim": 848,
      "long": 849,
      "park ": 850,
      "learned that ": 851,
      "turn": 852,
      "all ": 853,
      "ile ": 854,
      "il ": 855,
      "col": 856,
      "You are ": 857,
      "hand": 858,
      ". They played ": 859,
      ", and the ": 860,
      "ge ": 861,
      "don't ": 862,
      "uck": 863,
      ". We ": 864,
      "el ": 865,
      "nice ": 866,
      "s. She ": 867,
      ". He wanted to ": 868,
      "per": 869,
      "to be ": 870,
      "peo": 871,
      "just ": 872,
      "sad and ": 873,
      "into the ": 874,
      "us": 875,
      "fam": 876,
      "rom that day ": 877,
      "am ": 878,
      "expec": 879,
      "dre": 880,
      "flower": 881,
      "As ": 882,
      " as ": 883,
      "then ": 884,
      "hat": 885,
      "She ": 886,
      ". Sue ": 887,
      "laughed and ": 888,
      "prou": 889,
      "clim": 890,
      "it.\n": 891,
      ". The cat ": 892,
      "book": 893,
      "Tom and ": 894,
      "pretty ": 895,
      "watch": 896,
      "give ": 897,
      "smiled and said, \"": 898,
      "sad ": 899,
      "pot ": 900,
      "car ": 901,
      "water": 902,
      "climb": 903,
      ", they ": 904,
      "up and ": 905,
      "kind ": 906,
      "in the park": 907,
      ". It was a ": 908,
      "squ": 909,
      "unt": 910,
      "win": 911,
      ". They all ": 912,
      "hea": 913,
      "unexpec": 914,
      "took ": 915,
      "lly ": 916,
      ". Max ": 917,
      ". His ": 918,
      "to play ": 919,
      ". M": 920,
      "ber": 921,
      "loved to play ": 922,
      "hur": 923,
      "!\n": 924,
      "ving ": 925,
      "gard": 926,
      "far": 927,
      "share ": 928,
      "est": 929,
      "says": 930,
      "sun ": 931,
      "picked ": 932,
      "Da": 933,
      "Mia": 934,
      "ep ": 935,
      "unexpected ": 936,
      "e. The ": 937,
      "plan": 938,
      ", so ": 939,
      "a big ": 940,
      "together.\n": 941,
      "Tim. Tim ": 942,
      "from ": 943,
      "color": 944,
      "ally ": 945,
      "sel": 946,
      "even ": 947,
      "tra": 948,
      "uck ": 949,
      "fro": 950,
      "ook": 951,
      "e. They ": 952,
      "much ": 953,
      " at ": 954,
      "now": 955,
      "Jo": 956,
      "dog named ": 957,
      "where ": 958,
      "could": 959,
      "fin": 960,
      "gg": 961,
      "box ": 962,
      "surprise": 963,
      "'m ": 964,
      "pic": 965,
      ". So, ": 966,
      "ss ": 967,
      "to his ": 968,
      "out the ": 969,
      "come ": 970,
      "ink": 971,
      "d.\n": 972,
      "said.\n": 973,
      "fish ": 974,
      ", and they ": 975,
      "t a ": 976,
      "ic ": 977,
      "cha": 978,
      "ry, ": 979,
      " her": 980,
      " always ": 981,
      "lid": 982,
      "wn ": 983,
      "he was ": 984,
      "something unexpected ": 985,
      "put the ": 986,
      "ed a": 987,
      "ground": 988,
      "ark": 989,
      "dra": 990,
      "gu": 991,
      "Thank you, ": 992,
      "bra": 993,
      "feel ": 994,
      "Spot": 995,
      "Kitt": 996,
      "mag": 997,
      "good": 998,
      "luff": 999,
      "I a": 1000,
      "talk": 1001,
      "Ja": 1002,
      "mak": 1003,
      "e. She ": 1004,
      "ly, ": 1005,
      "beau": 1006,
      "around ": 1007,
      "noi": 1008,
      "had an ": 1009,
      "have a ": 1010,
      "y. He ": 1011,
      "ight": 1012,
      "rom that day on, ": 1013,
      "int": 1014,
      " about ": 1015,
      "s a ": 1016,
      "ear": 1017,
      "friend, ": 1018,
      "special ": 1019,
      "ol": 1020,
      "eat ": 1021,
      "dad ": 1022,
      "pictu": 1023,
      "kid": 1024,
      "should ": 1025,
      "beauti": 1026,
      "mom and ": 1027,
      "something unexpected happened": 1028,
      "nex": 1029,
      "brok": 1030,
      "know": 1031,
      "slid": 1032,
      "shar": 1033,
      "in his ": 1034,
      "toys ": 1035,
      "still ": 1036,
      ". Spot ": 1037,
      "listen": 1038,
      "ed a ": 1039,
      "t of ": 1040,
      "took the ": 1041,
      "! The ": 1042,
      "Th": 1043,
      "long ": 1044,
      "love ": 1045,
      "hugg": 1046,
      "loud ": 1047,
      "y. She ": 1048,
      "Sue": 1049,
      "then, ": 1050,
      ". In": 1051,
      "toys": 1052,
      "up the ": 1053,
      "to a ": 1054,
      "in her ": 1055,
      "cook": 1056,
      "they all ": 1057,
      " all day": 1058,
      "wha": 1059,
      "that he ": 1060,
      "Do ": 1061,
      "that": 1062,
      "ed it ": 1063,
      "ing to ": 1064,
      ".\" The ": 1065,
      "tw": 1066,
      "friends and ": 1067,
      "yum": 1068,
      "door": 1069,
      "Sara": 1070,
      "ow, ": 1071,
      "feel": 1072,
      "liked to play ": 1073,
      ". He was ": 1074,
      "no ": 1075,
      "it and ": 1076,
      "lived in a ": 1077,
      "great ": 1078,
      "fish": 1079,
      "It ": 1080,
      "ink ": 1081,
      "ru": 1082,
      "na ": 1083,
      "by": 1084,
      "high": 1085,
      "gam": 1086,
      "looked at ": 1087,
      "ddenly, ": 1088,
      "fter ": 1089,
      "made a ": 1090,
      "blo": 1091,
      ". The dog ": 1092,
      "No, ": 1093,
      "new": 1094,
      "had an idea": 1095,
      "how ": 1096,
      "fun.\n": 1097,
      ". They are ": 1098,
      "ous ": 1099,
      "flew ": 1100,
      "walked ": 1101,
      "eat": 1102,
      ", she ": 1103,
      "girl": 1104,
      "proud ": 1105,
      "ght ": 1106,
      "met": 1107,
      "cat named ": 1108,
      "kit": 1109,
      "look ": 1110,
      ". When ": 1111,
      "animal": 1112,
      " hou": 1113,
      "qui": 1114,
      "next ": 1115,
      "er mom ": 1116,
      "see the ": 1117,
      "Anna": 1118,
      "people ": 1119,
      "was sad": 1120,
      "said, \"Yes, ": 1121,
      "d. They ": 1122,
      "thought": 1123,
      "clean": 1124,
      " an ": 1125,
      "happily ": 1126,
      "an to ": 1127,
      "I'm ": 1128,
      "bit ": 1129,
      "fir": 1130,
      "said. \"": 1131,
      "better": 1132,
      ", there was a ": 1133,
      "loved ": 1134,
      "Mom ": 1135,
      "bri": 1136,
      "house ": 1137,
      "lot of ": 1138,
      "shed ": 1139,
      "Look": 1140,
      "forest": 1141,
      "Do you ": 1142,
      ". N": 1143,
      "bun": 1144,
      "tter ": 1145,
      "ort": 1146,
      "little bird ": 1147,
      "wanted to help": 1148,
      "being ": 1149,
      "pt ": 1150,
      "thre": 1151,
      "ati": 1152,
      "our ": 1153,
      "imp": 1154,
      "looked at the ": 1155,
      "near the ": 1156,
      "sta": 1157,
      "played with the ": 1158,
      "blue ": 1159,
      "sle": 1160,
      "nodd": 1161,
      "smiled": 1162,
      "had to ": 1163,
      "gra": 1164,
      "are ": 1165,
      "careful": 1166,
      "Hi": 1167,
      "reach": 1168,
      "Can I ": 1169,
      "mon": 1170,
      "need": 1171,
      "jumped ": 1172,
      "fix": 1173,
      "nic": 1174,
      "clos": 1175,
      "over": 1176,
      "couldn't ": 1177,
      "ey": 1178,
      "always ": 1179,
      "magic ": 1180,
      "ing a ": 1181,
      "zz": 1182,
      "befor": 1183,
      "s to ": 1184,
      "d. He ": 1185,
      " after": 1186,
      "time ": 1187,
      "back to ": 1188,
      "part": 1189,
      "girl named ": 1190,
      "yell": 1191,
      "garden": 1192,
      "wind ": 1193,
      "tin": 1194,
      "sho": 1195,
      "had a big ": 1196,
      "play with the ": 1197,
      "she was ": 1198,
      "stick": 1199,
      "irre": 1200,
      "had lots of ": 1201,
      "cla": 1202,
      "Once upon a time, there was a little girl named ": 1203,
      "cri": 1204,
      "were very ": 1205,
      "his mom ": 1206,
      "until ": 1207,
      "sna": 1208,
      "scared ": 1209,
      "day long": 1210,
      "ate ": 1211,
      "down ": 1212,
      "she": 1213,
      "ut": 1214,
      "story ": 1215,
      "ant ": 1216,
      "rabb": 1217,
      "ing, ": 1218,
      "Amy ": 1219,
      "food ": 1220,
      "squirre": 1221,
      "the best ": 1222,
      "called ": 1223,
      "off": 1224,
      "hid": 1225,
      " ad": 1226,
      "sat ": 1227,
      ". She was ": 1228,
      "things": 1229,
      ". Su": 1230,
      "vent": 1231,
      "beautiful ": 1232,
      ". From that day on, ": 1233,
      "shiny ": 1234,
      "food": 1235,
      ". It is ": 1236,
      "I am ": 1237,
      "together and ": 1238,
      "brea": 1239,
      "dr": 1240,
      "lk ": 1241,
      "tou": 1242,
      "mem": 1243,
      "cake ": 1244,
      "bro": 1245,
      "! I ": 1246,
      "bear ": 1247,
      "big and ": 1248,
      "Don't ": 1249,
      " all the ": 1250,
      "en the ": 1251,
      "try ": 1252,
      "em": 1253,
      "thought it ": 1254,
      "ger": 1255,
      " away ": 1256,
      ". You are ": 1257,
      "Bob ": 1258,
      ", there ": 1259,
      "heard a ": 1260,
      "row": 1261,
      "y an": 1262,
      "two ": 1263,
      "kept ": 1264,
      "on his ": 1265,
      "to make ": 1266,
      "tree and ": 1267,
      "fly ": 1268,
      "fav": 1269,
      "bug ": 1270,
      "kitch": 1271,
      "everyone ": 1272,
      "gla": 1273,
      "in the sk": 1274,
      "mes": 1275,
      "let's ": 1276,
      "is a ": 1277,
      "aybe ": 1278,
      ". Every ": 1279,
      "on the ground": 1280,
      "llow": 1281,
      "Anna ": 1282,
      "? ": 1283,
      "found a big ": 1284,
      "says, \"": 1285,
      "opened the ": 1286,
      "His ": 1287,
      ". A ": 1288,
      "bad ": 1289,
      "her mom ": 1290,
      "town": 1291,
      "con": 1292,
      " how ": 1293,
      "sunny ": 1294,
      "Joh": 1295,
      "spo": 1296,
      "so much ": 1297,
      "did not want to ": 1298,
      "strong": 1299,
      "Once upon a time, there was a little boy named ": 1300,
      "remem": 1301,
      "vo": 1302,
      "out of the ": 1303,
      "ing.\n": 1304,
      "One day, the ": 1305,
      "cor": 1306,
      "cry": 1307,
      "water ": 1308,
      "Fluff": 1309,
      "much": 1310,
      "you can ": 1311,
      "came to ": 1312,
      "lived happily ": 1313,
      "What ": 1314,
      "moral ": 1315,
      "that the ": 1316,
      "lived a ": 1317,
      "s were ": 1318,
      "did not know ": 1319,
      "irt": 1320,
      "min": 1321,
      "met a ": 1322,
      "s the ": 1323,
      "place ": 1324,
      "ap": 1325,
      "have to ": 1326,
      "favor": 1327,
      "Hell": 1328,
      "e. ": 1329,
      "y. ": 1330,
      ", but she ": 1331,
      "like the ": 1332,
      "doll": 1333,
      "saf": 1334,
      "had many ": 1335,
      "it is ": 1336,
      "Tim's ": 1337,
      "mouse ": 1338,
      "e, but ": 1339,
      "with their ": 1340,
      "noise": 1341,
      "wait": 1342,
      ". Then, ": 1343,
      "it to ": 1344,
      "plea": 1345,
      "curi": 1346,
      "mi": 1347,
      "friends. They ": 1348,
      "fell ": 1349,
      "import": 1350,
      "fly": 1351,
      "favorite ": 1352,
      "for help": 1353,
      "So, ": 1354,
      "yummy ": 1355,
      "enjo": 1356,
      ". Sam ": 1357,
      "wo": 1358,
      "Once upon a time ": 1359,
      ". She said, \"": 1360,
      "swe": 1361,
      "low": 1362,
      "Tim was ": 1363,
      "ed, ": 1364,
      "Kitty ": 1365,
      "beg": 1366,
      ". Tim and ": 1367,
      "bear": 1368,
      "d, ": 1369,
      "ffer": 1370,
      "back to the ": 1371,
      "leav": 1372,
      "then": 1373,
      "?\" The ": 1374,
      "excited": 1375,
      "s, and ": 1376,
      "his friends ": 1377,
      " around the ": 1378,
      "having ": 1379,
      "bug": 1380,
      "try": 1381,
      "wer ": 1382,
      " about the ": 1383,
      "dro": 1384,
      "helped ": 1385,
      "sof": 1386,
      "yard": 1387,
      "green ": 1388,
      "ventu": 1389,
      "because he ": 1390,
      "sure ": 1391,
      "safe": 1392,
      "toys and ": 1393,
      "ever after": 1394,
      "famil": 1395,
      " anymor": 1396,
      ". She wanted to ": 1397,
      "was very happy": 1398,
      "moral of the ": 1399,
      ". Bob": 1400,
      "s. The ": 1401,
      "that she ": 1402,
      "cho": 1403,
      "ay, ": 1404,
      "et and ": 1405,
      "down and ": 1406,
      "ig": 1407,
      ". They both ": 1408,
      "became good ": 1409,
      "Jan": 1410,
      "expl": 1411,
      "very": 1412,
      "self": 1413,
      " high": 1414,
      "differ": 1415,
      "cooki": 1416,
      "lost ": 1417,
      "wr": 1418,
      "ster": 1419,
      "careful ": 1420,
      "explor": 1421,
      ", but the ": 1422,
      "sleep": 1423,
      "Once upon a time, there was a little ": 1424,
      "under the ": 1425,
      "worked ": 1426,
      "it's ": 1427,
      "little boy named Tim ": 1428,
      "moral of the story ": 1429,
      "ild ": 1430,
      "friend, a ": 1431,
      "went hom": 1432,
      "ight ": 1433,
      "I will ": 1434,
      "say ": 1435,
      "tast": 1436,
      "ever after.\n": 1437,
      "said, ": 1438,
      "rain": 1439,
      "fru": 1440,
      "!\" The ": 1441,
      "table": 1442,
      ". Tim was ": 1443,
      "was so happy": 1444,
      "rough": 1445,
      "es.\n": 1446,
      " him ": 1447,
      "played together ": 1448,
      ". One day, he ": 1449,
      "found the ": 1450,
      "danc": 1451,
      "wanted ": 1452,
      "shout": 1453,
      "One day, a little girl named ": 1454,
      "would be ": 1455,
      "cream": 1456,
      "block": 1457,
      " and a ": 1458,
      "h ": 1459,
      "again": 1460,
      "stay": 1461,
      "hugged ": 1462,
      "her mom": 1463,
      "frog ": 1464,
      "he could ": 1465,
      "re you ": 1466,
      "read ": 1467,
      "what was ": 1468,
      "bow": 1469,
      "One sunny ": 1470,
      "follow": 1471,
      "y was ": 1472,
      "cro": 1473,
      "ungr": 1474,
      "Hi, ": 1475,
      " animal": 1476,
      "go to the ": 1477,
      "s. ": 1478,
      "y. The ": 1479,
      "went for a ": 1480,
      "ll the ": 1481,
      "bunny ": 1482,
      "kitchen": 1483,
      "can't ": 1484,
      "est ": 1485,
      "our": 1486,
      "sorry": 1487,
      "ter": 1488,
      "on her ": 1489,
      "lived happily ever after.\n": 1490,
      "That ": 1491,
      "says.\n": 1492,
      "soft ": 1493,
      "go hom": 1494,
      "Mr": 1495,
      " all day long": 1496,
      "what to ": 1497,
      "Mom, ": 1498,
      "din": 1499,
      "y. They ": 1500,
      "hard ": 1501,
      "floor": 1502,
      "small hou": 1503,
      "brave ": 1504,
      "Hello, ": 1505,
      "d. The ": 1506,
      "push": 1507,
      "picture": 1508,
      ", but it was ": 1509,
      "pret": 1510,
      "began to ": 1511,
      "room ": 1512,
      "funny ": 1513,
      "dirt": 1514,
      "tea": 1515,
      "ant": 1516,
      "night": 1517,
      "let ": 1518,
      "flew": 1519,
      "pon": 1520,
      "on it": 1521,
      "prom": 1522,
      "rabbit ": 1523,
      "while ": 1524,
      "shi": 1525,
      "we can ": 1526,
      "beh": 1527,
      "wel": 1528,
      "ust ": 1529,
      "sorry ": 1530,
      "said, \"Thank you, ": 1531,
      "stea": 1532,
      "le and ": 1533,
      "I can ": 1534,
      "tail": 1535,
      "little boy ": 1536,
      "won": 1537,
      "want": 1538,
      "Jack ": 1539,
      "kin": 1540,
      "excited to ": 1541,
      "boat": 1542,
      "had a great ": 1543,
      "deli": 1544,
      "remember": 1545,
      "less": 1546,
      "was very happy and ": 1547,
      "ball and ": 1548,
      "like to ": 1549,
      "d. She ": 1550,
      "curiou": 1551,
      ",\" said ": 1552,
      "kids ": 1553,
      "looking ": 1554,
      ", but they ": 1555,
      ", so he ": 1556,
      "dri": 1557,
      "went to the park ": 1558,
      "ran to the ": 1559,
      "Do you want to ": 1560,
      "e was ": 1561,
      "stopped ": 1562,
      "bor": 1563,
      ". Mia ": 1564,
      "runn": 1565,
      "rock ": 1566,
      "y again": 1567,
      "scared and ": 1568,
      "listen ": 1569,
      "Look, ": 1570,
      "came to the ": 1571,
      "hop": 1572,
      "find a ": 1573,
      "ughe": 1574,
      ". Every": 1575,
      "laughe": 1576,
      ".\" They ": 1577,
      "every day.\n": 1578,
      "Once upon a time there was a ": 1579,
      "dow": 1580,
      "asked ": 1581,
      "swing": 1582,
      "thanked ": 1583,
      "This ": 1584,
      "cake": 1585,
      ". In the ": 1586,
      "make a ": 1587,
      "ally, ": 1588,
      "thanked the ": 1589,
      "goodby": 1590,
      "At the ": 1591,
      "became best ": 1592,
      "It's ": 1593,
      "mis": 1594,
      "get the ": 1595,
      ". Tom": 1596,
      "playing": 1597,
      "A ": 1598,
      "y's ": 1599,
      "over ": 1600,
      "of a ": 1601,
      "fl": 1602,
      "put it ": 1603,
      ": ": 1604,
      "In": 1605,
      "played together": 1606,
      "hat's ": 1607,
      "show ": 1608,
      "warm": 1609,
      "behind ": 1610,
      "rac": 1611,
      "family ": 1612,
      "ran to ": 1613,
      "sing": 1614,
      "boat ": 1615,
      "Sally ": 1616,
      "down the ": 1617,
      "does ": 1618,
      "day.\n": 1619,
      "ch the ": 1620,
      "keep ": 1621,
      "toy car": 1622,
      "hungr": 1623,
      "clean ": 1624,
      "hill": 1625,
      "One day, a little boy named Tim ": 1626,
      "moral of the story is ": 1627,
      "ces": 1628,
      "cra": 1629,
      "it. He ": 1630,
      "maz": 1631,
      "es to ": 1632,
      "ci": 1633,
      "lli": 1634,
      "pro": 1635,
      "happy. They ": 1636,
      "knew that ": 1637,
      "\"O": 1638,
      "Once upon a time, there was a big ": 1639,
      "wood": 1640,
      "sound": 1641,
      " any": 1642,
      "te ": 1643,
      "need to ": 1644,
      "Then, ": 1645,
      "first": 1646,
      "came and ": 1647,
      "what to do": 1648,
      "my and ": 1649,
      "time to ": 1650,
      "prin": 1651,
      ". I will ": 1652,
      "Tom. Tom ": 1653,
      " angr": 1654,
      " and Ben ": 1655,
      " adventu": 1656,
      ", and he ": 1657,
      ". But the ": 1658,
      "!\" They ": 1659,
      "when he ": 1660,
      "ed to the ": 1661,
      "stay ": 1662,
      ". This ": 1663,
      "Once upon a time, there was a little boy named Tim. Tim ": 1664,
      "! He ": 1665,
      "farm": 1666,
      "enjoy": 1667,
      "der ": 1668,
      "swa": 1669,
      "new friend": 1670,
      "turned ": 1671,
      "through": 1672,
      "oun": 1673,
      "had a lot of ": 1674,
      "but": 1675,
      ", there lived a ": 1676,
      "Her mom ": 1677,
      "butter": 1678,
      "cast": 1679,
      "them.\n": 1680,
      "surpris": 1681,
      "song": 1682,
      "too.\n": 1683,
      "hurt ": 1684,
      "ag": 1685,
      "outside ": 1686,
      "was happy and ": 1687,
      "pli": 1688,
      "only ": 1689,
      "to play with": 1690,
      "tak": 1691,
      " again.\n": 1692,
      "!\" said ": 1693,
      "ph": 1694,
      "ce and ": 1695,
      "t.\n": 1696,
      "red ball": 1697,
      "yellow ": 1698,
      "ner": 1699,
      "better ": 1700,
      "stre": 1701,
      "store ": 1702,
      "very much": 1703,
      ". They were very ": 1704,
      "liked the ": 1705,
      "hair": 1706,
      ".\" Tim ": 1707,
      "mar": 1708,
      "Wow, ": 1709,
      "with his friends": 1710,
      "feeling ": 1711,
      "something unexpected happened. The ": 1712,
      "squirrel ": 1713,
      ". As ": 1714,
      "Can you ": 1715,
      "on, the ": 1716,
      "please": 1717,
      "think": 1718,
      "fair": 1719,
      "could not find ": 1720,
      "moment": 1721,
      "boy named Tim ": 1722,
      "y ask": 1723,
      "truck": 1724,
      "Lily. She ": 1725,
      "ddy ": 1726,
      "bran": 1727,
      "ide ": 1728,
      "truck ": 1729,
      "wise ": 1730,
      "I want to ": 1731,
      "But then, ": 1732,
      "pped and ": 1733,
      "sy ": 1734,
      "he had ": 1735,
      "smell": 1736,
      "ber ": 1737,
      ". Wh": 1738,
      "Just ": 1739,
      "looked around ": 1740,
      "was happy ": 1741,
      "play and ": 1742,
      "full ": 1743,
      "want ": 1744,
      "were playing ": 1745,
      "y are you ": 1746,
      "tire": 1747,
      "they could ": 1748,
      ". His mom ": 1749,
      "One sunny day, ": 1750,
      "Bu": 1751,
      "their": 1752,
      "had so much ": 1753,
      "Sara ": 1754,
      "held ": 1755,
      "help you ": 1756,
      "not a ": 1757,
      "Fin": 1758,
      "Don't wor": 1759,
      "wing": 1760,
      "repli": 1761,
      "grabb": 1762,
      "walk ": 1763,
      "Once upon a time, in a small ": 1764,
      "picture ": 1765,
      ", a big ": 1766,
      "ick": 1767,
      "Ben and ": 1768,
      "whi": 1769,
      "it was": 1770,
      "went outsid": 1771,
      ". One day, she ": 1772,
      "now ": 1773,
      "whil": 1774,
      "Tim, ": 1775,
      "started ": 1776,
      "sorry, ": 1777,
      "coun": 1778,
      "His mom ": 1779,
      "Lily, ": 1780,
      "wonder": 1781,
      "you are ": 1782,
      "time": 1783,
      ". Let's ": 1784,
      "inside": 1785,
      "for his ": 1786,
      "notic": 1787,
      "proud of": 1788,
      "gave the ": 1789,
      "glad ": 1790,
      "to help": 1791,
      "sometim": 1792,
      "land": 1793,
      "sand": 1794,
      "Suddenly, ": 1795,
      "able ": 1796,
      "ed their ": 1797,
      "anymor": 1798,
      "took a ": 1799,
      "asked her ": 1800,
      "Lily's ": 1801,
      "was too ": 1802,
      "says ": 1803,
      "! It ": 1804,
      "they had ": 1805,
      "se, ": 1806,
      "dad": 1807,
      "making ": 1808,
      ". Suddenly, ": 1809,
      "job": 1810,
      "different ": 1811,
      "does not ": 1812,
      "bark": 1813,
      " agre": 1814,
      "with a big ": 1815,
      "As they ": 1816,
      "said, \"No, ": 1817,
      "pen": 1818,
      ". Lucy ": 1819,
      "on the floor": 1820,
      "quick": 1821,
      "s in the ": 1822,
      "into ": 1823,
      "cr": 1824,
      "ill ": 1825,
      "ready ": 1826,
      "wished ": 1827,
      "went to the park": 1828,
      "liz": 1829,
      "tiny ": 1830,
      "little girl": 1831,
      "'re ": 1832,
      "se and ": 1833,
      "!\" Lily ": 1834,
      ". Everyone ": 1835,
      "keep": 1836,
      "help you": 1837,
      "asked, \"": 1838,
      "full of ": 1839,
      "dis": 1840,
      "soon": 1841,
      "loud": 1842,
      "row ": 1843,
      "special": 1844,
      "John ": 1845,
      "ft ": 1846,
      "lady ": 1847,
      "top": 1848,
      ". Her mom ": 1849,
      "window": 1850,
      ". Her ": 1851,
      "tor": 1852,
      "for her ": 1853,
      "slow": 1854,
      "have fun": 1855,
      "Tom, ": 1856,
      "than ": 1857,
      "ark ": 1858,
      "right": 1859,
      "pull": 1860,
      "picked it ": 1861,
      "Amy": 1862,
      "to play": 1863,
      "them and ": 1864,
      "she could ": 1865,
      "catch ": 1866,
      "for a moment": 1867,
      "heav": 1868,
      "ine ": 1869,
      "cam": 1870,
      "said, \"O": 1871,
      "like a ": 1872,
      "nd and ": 1873,
      "ard ": 1874,
      "is not ": 1875,
      "blu": 1876,
      "was happy to ": 1877,
      "said, \"Let's ": 1878,
      "must ": 1879,
      "Go": 1880,
      "when she ": 1881,
      "run ": 1882,
      "dream": 1883,
      "ad": 1884,
      "flower ": 1885,
      "liked ": 1886,
      "stu": 1887,
      "Don't worry, ": 1888,
      "wall": 1889,
      "nodded and ": 1890,
      " how to ": 1891,
      "own": 1892,
      " amaz": 1893,
      "top ": 1894,
      "Dais": 1895,
      "fur": 1896,
      "tir": 1897,
      "mommy ": 1898,
      "showed ": 1899,
      ". Bob ": 1900,
      ". Then ": 1901,
      "bag": 1902,
      "The next ": 1903,
      "box and ": 1904,
      "time, ": 1905,
      "ot": 1906,
      "saw a big, ": 1907,
      "see": 1908,
      "store": 1909,
      " awa": 1910,
      "made the ": 1911,
      "inside the ": 1912,
      "peopl": 1913,
      "vis": 1914,
      "sig": 1915,
      "ing in the ": 1916,
      "gent": 1917,
      "pe ": 1918,
      "on and ": 1919,
      "Tim's mom ": 1920,
      "cand": 1921,
      "ed. He ": 1922,
      "fight": 1923,
      "do not ": 1924,
      " asked ": 1925,
      "Lily and Ben ": 1926,
      "stayed ": 1927,
      "Plea": 1928,
      "game ": 1929,
      "into a ": 1930,
      "friendly ": 1931,
      "mov": 1932,
      "for you": 1933,
      "sad.\n": 1934,
      " \n": 1935,
      "didn't know ": 1936,
      "Why are you ": 1937,
      "excited and ": 1938,
      "together. They ": 1939,
      "soft": 1940,
      "was playing ": 1941,
      "Max and ": 1942,
      ". Amy ": 1943,
      "had a fun ": 1944,
      "frog": 1945,
      ". He was very ": 1946,
      "cold ": 1947,
      "ice": 1948,
      "oke ": 1949,
      "ele": 1950,
      "paint": 1951,
      "when they ": 1952,
      "says. \"": 1953,
      "dark": 1954,
      "key ": 1955,
      "pain": 1956,
      "?\"": 1957,
      "ser": 1958,
      "he would ": 1959,
      "kind and ": 1960,
      "asked his ": 1961,
      "was so happy and ": 1962,
      "picked up the ": 1963,
      ", but it ": 1964,
      "ely ": 1965,
      "bright": 1966,
      "mouth": 1967,
      "through the ": 1968,
      "with his mom": 1969,
      "hurt": 1970,
      "air": 1971,
      "been ": 1972,
      "stop": 1973,
      "ballo": 1974,
      "warm ": 1975,
      "b ": 1976,
      "bout ": 1977,
      "day, the ": 1978,
      "all the ": 1979,
      "clothe": 1980,
      "stran": 1981,
      "fini": 1982,
      "fre": 1983,
      "tall ": 1984,
      "tree. The ": 1985,
      " adventure": 1986,
      "i ": 1987,
      "sit ": 1988,
      "shared ": 1989,
      ". But then, ": 1990,
      "!\" Tim ": 1991,
      "snow": 1992,
      "ever ": 1993,
      "lat": 1994,
      "baby ": 1995,
      "ugg": 1996,
      "eat the ": 1997,
      "high ": 1998,
      "butto": 1999,
      "sea": 2000,
      "grand": 2001,
      "had lots of fun": 2002,
      "ger ": 2003,
      "tell": 2004,
      "was so happy to ": 2005,
      "oo": 2006,
      "ed to be ": 2007,
      "mix": 2008,
      "open ": 2009,
      "play with it": 2010,
      " around": 2011,
      "w the ": 2012,
      "! She ": 2013,
      "Sall": 2014,
      "back hom": 2015,
      "fter a ": 2016,
      "ous": 2017,
      "Once there was a ": 2018,
      "by the ": 2019,
      ". So, he ": 2020,
      "pur": 2021,
      "care ": 2022,
      "pick ": 2023,
      "find the ": 2024,
      "home": 2025,
      "safe ": 2026,
      "ome ": 2027,
      "learn ": 2028,
      "Can we ": 2029,
      "was sad ": 2030,
      "ed. They ": 2031,
      "Mommy ": 2032,
      "move ": 2033,
      "end of the ": 2034,
      "brough": 2035,
      "ss and ": 2036,
      "ster ": 2037,
      "treat": 2038,
      " at": 2039,
      "swim": 2040,
      "wanted to help the ": 2041,
      "going ": 2042,
      "pick": 2043,
      "colorful ": 2044,
      "light": 2045,
      "sun was ": 2046,
      "dog named Max": 2047,
      "duck": 2048,
      "sees ": 2049,
      "water and ": 2050,
      "saw his ": 2051,
      "”\n": 2052,
      ". One day, the ": 2053,
      "strong ": 2054,
      "After ": 2055,
      "word": 2056,
      "fall": 2057,
      "help me ": 2058,
      ". Every day, ": 2059,
      "Sue. Sue ": 2060,
      "wea": 2061,
      "a good ": 2062,
      "cheer": 2063,
      "wanted to play ": 2064,
      "felt very ": 2065,
      "thought for a moment": 2066,
      "mean": 2067,
      "Jane ": 2068,
      ". W": 2069,
      "hole": 2070,
      "the best of ": 2071,
      "ted": 2072,
      "kay, ": 2073,
      "saw her ": 2074,
      "trying to ": 2075,
      "wants ": 2076,
      "wear": 2077,
      "climbed ": 2078,
      "spla": 2079,
      "with her mom": 2080,
      "had an idea. He ": 2081,
      "led ": 2082,
      "ol ": 2083,
      "for him": 2084,
      "call": 2085,
      "mom, \"": 2086,
      "why ": 2087,
      "said \"": 2088,
      "was so happy ": 2089,
      "went for a walk": 2090,
      "gone": 2091,
      "fast ": 2092,
      "it was time to ": 2093,
      " ano": 2094,
      "listen to ": 2095,
      "think ": 2096,
      "wanted to be ": 2097,
      "fire": 2098,
      "a and ": 2099,
      ". We can ": 2100,
      "In the ": 2101,
      "!\" Tom ": 2102,
      "stuck ": 2103,
      "okay": 2104,
      "y and the ": 2105,
      ". Ben ": 2106,
      "chil": 2107,
      "bla": 2108,
      "nor": 2109,
      "play together": 2110,
      "before ": 2111,
      "had fun": 2112,
      "outside": 2113,
      "over the ": 2114,
      "ni": 2115,
      "there": 2116,
      "mus": 2117,
      "in their ": 2118,
      "room and ": 2119,
      "grass": 2120,
      "set": 2121,
      "One day, a boy named Tim ": 2122,
      ". There ": 2123,
      "it. The ": 2124,
      "rain ": 2125,
      ". Tim was very ": 2126,
      "Fluffy ": 2127,
      "was sad and ": 2128,
      "ught": 2129,
      "knew": 2130,
      " away.\n": 2131,
      "each other and ": 2132,
      "'s a ": 2133,
      "saw that ": 2134,
      "smar": 2135,
      "piec": 2136,
      "she had ": 2137,
      "round ": 2138,
      ". L": 2139,
      "was happy": 2140,
      ". So": 2141,
      ". One day, they ": 2142,
      ". You can ": 2143,
      "drag": 2144,
      "chan": 2145,
      "chair": 2146,
      "rest": 2147,
      "bar": 2148,
      "ng ": 2149,
      ", and it ": 2150,
      "je": 2151,
      "thought about ": 2152,
      "appl": 2153,
      "door ": 2154,
      "bott": 2155,
      "with many ": 2156,
      "nice": 2157,
      "in and ": 2158,
      "need ": 2159,
      "table ": 2160,
      "said, “": 2161,
      "ez": 2162,
      "tting ": 2163,
      "worri": 2164,
      "So ": 2165,
      "waved ": 2166,
      "do you ": 2167,
      "cket": 2168,
      "parent": 2169,
      "open the ": 2170,
      "fla": 2171,
      "was scared": 2172,
      "Once upon a time, in a big ": 2173,
      "pink ": 2174,
      "one.\n": 2175,
      "in the garden": 2176,
      "cold": 2177,
      "angr": 2178,
      "underst": 2179,
      "I don't ": 2180,
      "work ": 2181,
      "danger": 2182,
      "ed. She ": 2183,
      "ump ": 2184,
      "close ": 2185,
      "teach": 2186,
      "es. They ": 2187,
      ". An": 2188,
      "make the ": 2189,
      "back and ": 2190,
      "year": 2191,
      "bed": 2192,
      "got": 2193,
      "dog named Spot": 2194,
      "Bill": 2195,
      "er, ": 2196,
      "smiled ": 2197,
      "Do": 2198,
      "bath": 2199,
      "take a ": 2200,
      "this": 2201,
      "one, ": 2202,
      " are you ": 2203,
      "fox": 2204,
      "broken ": 2205,
      "in the sky": 2206,
      ". But": 2207,
      "realiz": 2208,
      "wrong": 2209,
      "ny": 2210,
      "went": 2211,
      "fac": 2212,
      "thank ": 2213,
      "bird and ": 2214,
      "said to ": 2215,
      "coming ": 2216,
      "animals ": 2217,
      "Timmy ": 2218,
      "Tom's ": 2219,
      "ma ": 2220,
      "thought it was ": 2221,
      "Jack": 2222,
      " ho": 2223,
      ". The big ": 2224,
      "three ": 2225,
      "buy ": 2226,
      "oran": 2227,
      "wagg": 2228,
      "carefu": 2229,
      "contin": 2230,
      "importan": 2231,
      "tor ": 2232,
      "lived in a big ": 2233,
      "en and ": 2234,
      "ct ": 2235,
      "all day": 2236,
      "squirrel": 2237,
      "That's ": 2238,
      "ward": 2239,
      "paper": 2240,
      "owl ": 2241,
      "old man ": 2242,
      "quickly ": 2243,
      "boun": 2244,
      "has ": 2245,
      "until": 2246,
      ", and they all ": 2247,
      "book ": 2248,
      "sweet ": 2249,
      "'s": 2250,
      "it, ": 2251,
      "played and ": 2252,
      "pudd": 2253,
      "whe": 2254,
      "!\" Ben ": 2255,
      " also ": 2256,
      "shel": 2257,
      "looks ": 2258,
      "saw something ": 2259,
      "One day ": 2260,
      "did not like ": 2261,
      "spr": 2262,
      "small house": 2263,
      "look at ": 2264,
      "might ": 2265,
      "lie": 2266,
      "laughed ": 2267,
      "voice ": 2268,
      "tree.\n": 2269,
      "castle": 2270,
      "ban": 2271,
      "cut ": 2272,
      "s and the ": 2273,
      ". Now, ": 2274,
      "sou": 2275,
      "not to ": 2276,
      "Dad ": 2277,
      "que": 2278,
      "will be ": 2279,
      "friend, Sam": 2280,
      "mea": 2281,
      "boy": 2282,
      "so he ": 2283,
      "bird. The bird ": 2284,
      " high ": 2285,
      ". All the ": 2286,
      "said goodby": 2287,
      "they are ": 2288,
      "fix ": 2289,
      "lion ": 2290,
      "white ": 2291,
      "watch ": 2292,
      "fast and ": 2293,
      ". Insid": 2294,
      "h no": 2295,
      " another ": 2296,
      "has a ": 2297,
      "One day, a big ": 2298,
      "kind": 2299,
      "And ": 2300,
      "end.\n": 2301,
      "ste": 2302,
      "with him": 2303,
      "mat": 2304,
      "see what was ": 2305,
      "continu": 2306,
      "duck ": 2307,
      "childr": 2308,
      "hopped ": 2309,
      ". And they ": 2310,
      "promis": 2311,
      "Once upon a time, in a small town": 2312,
      "really ": 2313,
      "mil": 2314,
      "va": 2315,
      "your": 2316,
      "ate": 2317,
      "listened to ": 2318,
      "sail": 2319,
      "! You ": 2320,
      "share the ": 2321,
      "jump ": 2322,
      ". He liked to ": 2323,
      "it. She ": 2324,
      "perfe": 2325,
      "pretend ": 2326,
      "While ": 2327,
      "proud of ": 2328,
      ". Tom and ": 2329,
      "right ": 2330,
      ". He would ": 2331,
      "ed. \"": 2332,
      "can I ": 2333,
      "ground ": 2334,
      "run and ": 2335,
      "cream ": 2336,
      "shared the ": 2337,
      "zo": 2338,
      "nap": 2339,
      "thought, \"": 2340,
      ". He said, \"": 2341,
      "there were ": 2342,
      "! Let's ": 2343,
      "feel better": 2344,
      ", Tim ": 2345,
      "share": 2346,
      "Sue and ": 2347,
      "looked around and ": 2348,
      "What": 2349,
      "ive ": 2350,
      "ose ": 2351,
      "out to ": 2352,
      "leg": 2353,
      "ch and ": 2354,
      "cool": 2355,
      "new friend ": 2356,
      "house and ": 2357,
      "off the ": 2358,
      "ipp": 2359,
      "sed ": 2360,
      "race ": 2361,
      "walking ": 2362,
      "thought it would be ": 2363,
      "in the water": 2364,
      "hor": 2365,
      "sli": 2366,
      "train ": 2367,
      "John": 2368,
      "ie": 2369,
      ". C": 2370,
      "Lily and Tom ": 2371,
      "under ": 2372,
      ", so she ": 2373,
      "surprised": 2374,
      "draw": 2375,
      "snack": 2376,
      "y anymor": 2377,
      "had fun ": 2378,
      "replied, \"": 2379,
      ", Tim": 2380,
      "The bird ": 2381,
      "stor": 2382,
      "sitt": 2383,
      "because it ": 2384,
      ". Maybe ": 2385,
      "dog named Spot. Spot ": 2386,
      "well": 2387,
      "nest": 2388,
      "talk ": 2389,
      "stick ": 2390,
      "grow": 2391,
      "ves ": 2392,
      "enough": 2393,
      "good at ": 2394,
      "Thank you ": 2395,
      "wanted the ": 2396,
      "was always ": 2397,
      ". I a": 2398,
      "going to ": 2399,
      "saw many ": 2400,
      "pretty": 2401,
      "ppear": 2402,
      "be careful": 2403,
      "head": 2404,
      "touch": 2405,
      "welcom": 2406,
      "my, ": 2407,
      "boy named Tim. Tim ": 2408,
      "break": 2409,
      "hole ": 2410,
      "bright ": 2411,
      "his mom": 2412,
      "also ": 2413,
      "crab": 2414,
      "lon": 2415,
      "face": 2416,
      "buil": 2417,
      "plac": 2418,
      "secre": 2419,
      "Bo": 2420,
      "pt": 2421,
      " after ": 2422,
      " ap": 2423,
      "lan": 2424,
      "uni": 2425,
      "pap": 2426,
      "just": 2427,
      "loved to play with his ": 2428,
      "was an ": 2429,
      "read": 2430,
      "Mom and ": 2431,
      "loud noise": 2432,
      ". It's ": 2433,
      "mom and dad ": 2434,
      "corn": 2435,
      "What is ": 2436,
      "\"Look, ": 2437,
      "as ": 2438,
      "sing ": 2439,
      ". He saw a ": 2440,
      "You're ": 2441,
      "pea": 2442,
      "Yes": 2443,
      "bit": 2444,
      "One day, Tim ": 2445,
      "build ": 2446,
      "most ": 2447,
      "The little girl ": 2448,
      "But the ": 2449,
      "whist": 2450,
      "on.\n": 2451,
      "turns ": 2452,
      "to her ": 2453,
      "who": 2454,
      "others ": 2455,
      "important to ": 2456,
      "cat. The cat ": 2457,
      "they would ": 2458,
      "fun to ": 2459,
      "soon ": 2460,
      "from that day ": 2461,
      "say, \"": 2462,
      "luffy ": 2463,
      "living ": 2464,
      "friends. They played ": 2465,
      "something": 2466,
      "was very happy.\n": 2467,
      "sad. They ": 2468,
      "I'm sorry, ": 2469,
      "lways ": 2470,
      "wher": 2471,
      "outside and ": 2472,
      "home, ": 2473,
      "someone ": 2474,
      ",\" she ": 2475,
      "lost": 2476,
      "went outside to ": 2477,
      "Mo": 2478,
      ". He loved to ": 2479,
      "take the ": 2480,
      "touch ": 2481,
      "Maybe ": 2482,
      "off ": 2483,
      "tru": 2484,
      "moral of the story is that ": 2485,
      "ppy ": 2486,
      "morn": 2487,
      ",\"": 2488,
      "’s ": 2489,
      "river": 2490,
      "they got ": 2491,
      "in the sun": 2492,
      "were so ": 2493,
      "while, ": 2494,
      "to find ": 2495,
      ". To": 2496,
      "Why ": 2497,
      "des": 2498,
      "er.\n": 2499,
      "went back to ": 2500,
      "tall": 2501,
      "?\" Tim ": 2502,
      "I am": 2503,
      "scho": 2504,
      "delici": 2505,
      "see what ": 2506,
      "him and ": 2507,
      "until the ": 2508,
      "gift": 2509,
      "place": 2510,
      ". And they all ": 2511,
      "pretend": 2512,
      "!\"": 2513,
      "own ": 2514,
      "wanted to help ": 2515,
      "tree, ": 2516,
      "told her ": 2517,
      "surprise ": 2518,
      "The next day, ": 2519,
      "\"H": 2520,
      "sc": 2521,
      ". P": 2522,
      "wanted to play with the ": 2523,
      "comfor": 2524,
      "From that day on, ": 2525,
      "king ": 2526,
      "loved the ": 2527,
      "cup": 2528,
      "phan": 2529,
      "red and ": 2530,
      "One day, a little ": 2531,
      "lun": 2532,
      "belie": 2533,
      "room. She ": 2534,
      ", but it was too ": 2535,
      "dog named Max. Max ": 2536,
      "ve the ": 2537,
      "cover": 2538,
      "garden ": 2539,
      "around the ": 2540,
      "trea": 2541,
      "hard": 2542,
      "blan": 2543,
      "birds ": 2544,
      " are you do": 2545,
      "p and ": 2546,
      "” ": 2547,
      " at the park": 2548,
      "smiled and said, \"Yes, ": 2549,
      "it was a ": 2550,
      "of his ": 2551,
      "promi": 2552,
      "climb ": 2553,
      "brave and ": 2554,
      "ear ": 2555,
      "ing his ": 2556,
      "trou": 2557,
      "other animal": 2558,
      "So": 2559,
      "old and ": 2560,
      "button": 2561,
      "e, and ": 2562,
      "bask": 2563,
      "ed. The ": 2564,
      "they both ": 2565,
      "reached ": 2566,
      "help the ": 2567,
      "Le": 2568,
      "mone": 2569,
      "disa": 2570,
      "told him ": 2571,
      "closer ": 2572,
      "sse": 2573,
      "happy again": 2574,
      "icy ": 2575,
      "it. They ": 2576,
      "okay, ": 2577,
      "lad": 2578,
      "pill": 2579,
      "Li": 2580,
      "look at the ": 2581,
      "pie": 2582,
      "sker": 2583,
      "makes ": 2584,
      ". He saw a big ": 2585,
      "she would ": 2586,
      "learned ": 2587,
      "Lila ": 2588,
      "swam ": 2589,
      "Her ": 2590,
      "move": 2591,
      "tell ": 2592,
      "scream": 2593,
      "on their ": 2594,
      "ug ": 2595,
      "cal": 2596,
      "Lily. Lily ": 2597,
      "it the ": 2598,
      "dress": 2599,
      "hone": 2600,
      "laughed": 2601,
      "isker": 2602,
      "shap": 2603,
      " arm": 2604,
      "needed ": 2605,
      "brought ": 2606,
      "dog, ": 2607,
      "home ": 2608,
      "waited ": 2609,
      "ben": 2610,
      "should not ": 2611,
      "town ": 2612,
      ". Sar": 2613,
      "ing her ": 2614,
      "es. She ": 2615,
      "lar": 2616,
      "is very ": 2617,
      "lock": 2618,
      "ing. He ": 2619,
      "gave him": 2620,
      "brother": 2621,
      ": \"": 2622,
      "kis": 2623,
      "ary ": 2624,
      "! They ": 2625,
      "deep ": 2626,
      "eyes and ": 2627,
      "They a": 2628,
      "carro": 2629,
      "gain ": 2630,
      ". One day, Tim ": 2631,
      "cray": 2632,
      "elephan": 2633,
      "fan": 2634,
      "wash": 2635,
      "sear": 2636,
      "bird named ": 2637,
      "stopp": 2638,
      "mean ": 2639,
      "nice and ": 2640,
      "caugh": 2641,
      "did not know": 2642,
      "Mia and ": 2643,
      "mir": 2644,
      ". It was very ": 2645,
      "can make ": 2646,
      "said y": 2647,
      "Ben are ": 2648,
      "lot": 2649,
      "Gran": 2650,
      "ious ": 2651,
      "twin": 2652,
      "time.\n": 2653,
      "stop ": 2654,
      "twi": 2655,
      ". That ": 2656,
      "felt sad and ": 2657,
      "behind the ": 2658,
      "doc": 2659,
      ". I'm ": 2660,
      "ddenly": 2661,
      "picked it up and ": 2662,
      "sitting ": 2663,
      "zy ": 2664,
      "cour": 2665,
      "surprised and ": 2666,
      "years ": 2667,
      "kitt": 2668,
      "hav": 2669,
      "watch the ": 2670,
      "bad": 2671,
      "cat and the ": 2672,
      "bble": 2673,
      "med": 2674,
      "you.\"\n": 2675,
      "was a very ": 2676,
      "played with ": 2677,
      "train": 2678,
      "tight": 2679,
      "was the ": 2680,
      "doll ": 2681,
      "gether": 2682,
      "red ball ": 2683,
      "because she ": 2684,
      "each other ": 2685,
      "heal": 2686,
      "in the kitchen": 2687,
      ".\" Lily ": 2688,
      "real ": 2689,
      "teddy ": 2690,
      "ot ": 2691,
      "woke ": 2692,
      "!\" she ": 2693,
      "went to play ": 2694,
      "never se": 2695,
      "around": 2696,
      "Lucy": 2697,
      "naught": 2698,
      "play with me": 2699,
      "dance ": 2700,
      "Then": 2701,
      "Em": 2702,
      "ion": 2703,
      "tower": 2704,
      "hold": 2705,
      "mum ": 2706,
      "ed as ": 2707,
      "mail": 2708,
      "trees": 2709,
      "ball.\n": 2710,
      "each other. They ": 2711,
      "dinner": 2712,
      "Mim": 2713,
      "Re": 2714,
      "th and ": 2715,
      ", it ": 2716,
      "said, \"Hi, ": 2717,
      "went back to the ": 2718,
      "climb the ": 2719,
      "something unexpected happened. A ": 2720,
      "Grand": 2721,
      "e.\"\n": 2722,
      "reach the ": 2723,
      "dark ": 2724,
      "us ": 2725,
      "beautiful": 2726,
      "fen": 2727,
      ". They liked to ": 2728,
      "heir ": 2729,
      ". She said ": 2730,
      "fiel": 2731,
      "mess": 2732,
      "forever": 2733,
      "fun and ": 2734,
      "toy car ": 2735,
      "up to the ": 2736,
      "wait to ": 2737,
      "out and ": 2738,
      "Please ": 2739,
      "set ": 2740,
      "getting ": 2741,
      "race": 2742,
      "fra": 2743,
      "birth": 2744,
      "ice cream": 2745,
      "thought the ": 2746,
      "knew he ": 2747,
      ". In the end": 2748,
      "can be ": 2749,
      "slide ": 2750,
      " all day long.\n": 2751,
      "ly and ": 2752,
      "ide": 2753,
      "very fast": 2754,
      "how to ": 2755,
      "safe and ": 2756,
      "small house ": 2757,
      "Bobo": 2758,
      "pati": 2759,
      "filled ": 2760,
      "dog. The dog ": 2761,
      "if you ": 2762,
      "vill": 2763,
      "wra": 2764,
      ". He had ": 2765,
      "Sue, ": 2766,
      ". She was very ": 2767,
      "inside ": 2768,
      "each other.\n": 2769,
      ". Mom ": 2770,
      "door and ": 2771,
      "ride ": 2772,
      "out a ": 2773,
      "This is ": 2774,
      "sometimes ": 2775,
      "any ": 2776,
      ". They wanted to ": 2777,
      "smile ": 2778,
      ". Sally ": 2779,
      "shr": 2780,
      ". At the ": 2781,
      "wore ": 2782,
      "her and ": 2783,
      "luck": 2784,
      "small, ": 2785,
      "hands and ": 2786,
      "Jen": 2787,
      "in the park ": 2788,
      "Tim and Sue ": 2789,
      "no one ": 2790,
      "leaves": 2791,
      "s are ": 2792,
      "light ": 2793,
      "of her ": 2794,
      "play a ": 2795,
      ",\" Lily ": 2796,
      "up to ": 2797,
      "try to ": 2798,
      "ek": 2799,
      "watched the ": 2800,
      "lue ": 2801,
      "opened ": 2802,
      "ed again": 2803,
      "clapp": 2804,
      "\"Yes, ": 2805,
      "To": 2806,
      "dea": 2807,
      "to a big ": 2808,
      "have fun ": 2809,
      "paw": 2810,
      "pond": 2811,
      "Why are you sad": 2812,
      "Ben, ": 2813,
      "num": 2814,
      "e and the ": 2815,
      "me, ": 2816,
      ". He had a ": 2817,
      "found a big, ": 2818,
      "it was time to go hom": 2819,
      "\"Let's ": 2820,
      "lion": 2821,
      "looking": 2822,
      ",\" Ben ": 2823,
      "noise ": 2824,
      " all day.\n": 2825,
      "Bell": 2826,
      "Once upon a time, in a small house": 2827,
      "fox ": 2828,
      "\"No, ": 2829,
      "s on the ": 2830,
      "today": 2831,
      "ed, and ": 2832,
      "friend.\n": 2833,
      "party ": 2834,
      "important ": 2835,
      "s of ": 2836,
      "to always ": 2837,
      "hot ": 2838,
      "leaf": 2839,
      "Sara and ": 2840,
      "Finally, ": 2841,
      "magi": 2842,
      "!\" \n": 2843,
      ".\" \n": 2844,
      "started to cry": 2845,
      " ask ": 2846,
      "pushed the ": 2847,
      "ready to ": 2848,
      "from that day on, ": 2849,
      "likes ": 2850,
      "family": 2851,
      "wants to ": 2852,
      "'ll ": 2853,
      "pet": 2854,
      "ani": 2855,
      "have some ": 2856,
      "Lucy and ": 2857,
      "reached the ": 2858,
      "thought it was a ": 2859,
      "e, a ": 2860,
      "robo": 2861,
      "playing with the ": 2862,
      "wet": 2863,
      "felt a ": 2864,
      "butterfly ": 2865,
      "wish ": 2866,
      "bag ": 2867,
      "shook": 2868,
      "scary ": 2869,
      "do it": 2870,
      ". Fluffy ": 2871,
      "game": 2872,
      "place to ": 2873,
      "wait ": 2874,
      "Sam and ": 2875,
      "fter a while, ": 2876,
      "piece ": 2877,
      "mod": 2878,
      "ven ": 2879,
      "with her": 2880,
      "her friends ": 2881,
      "did not listen": 2882,
      "age": 2883,
      "in the big ": 2884,
      "him.\n": 2885,
      "wagged his ": 2886,
      "thy ": 2887,
      "finally ": 2888,
      "sweet": 2889,
      "craw": 2890,
      "with me": 2891,
      "!\" he ": 2892,
      "catch the ": 2893,
      "fruit": 2894,
      "same ": 2895,
      "es a ": 2896,
      " her mom ": 2897,
      "cer": 2898,
      "and the ": 2899,
      "rub": 2900,
      "sun was shin": 2901,
      ". The man ": 2902,
      "mel": 2903,
      "ry and ": 2904,
      "little bird": 2905,
      "in the yard": 2906,
      "friends, ": 2907,
      ".\" So, ": 2908,
      "in a big ": 2909,
      "mom and da": 2910,
      "s.\"\n": 2911,
      "for being ": 2912,
      "cele": 2913,
      "fix the ": 2914,
      ". So ": 2915,
      "grump": 2916,
      "mouse": 2917,
      "self ": 2918,
      "for helping ": 2919,
      "believe ": 2920,
      ". They laughed and ": 2921,
      "best": 2922,
      "coll": 2923,
      "stori": 2924,
      "Tim and Sam ": 2925,
      "plant": 2926,
      "ss the ": 2927,
      "then, the ": 2928,
      "cloud": 2929,
      ",\" he ": 2930,
      "inside.\n": 2931,
      "beach": 2932,
      "proble": 2933,
      "pped the ": 2934,
      "can you ": 2935,
      "sol": 2936,
      "Tom and Lily ": 2937,
      "give up": 2938,
      "irp": 2939,
      "lived in a small house ": 2940,
      "lesson": 2941,
      "purple ": 2942,
      "rest ": 2943,
      ", and she ": 2944,
      "made a big ": 2945,
      "Once upon a time, in a small town, there was a ": 2946,
      "school": 2947,
      "shop": 2948,
      "dist": 2949,
      "worked together ": 2950,
      "black ": 2951,
      "cy ": 2952,
      "cket ": 2953,
      "who was ": 2954,
      "As the ": 2955,
      "brown ": 2956,
      "orange ": 2957,
      "wagged his tail": 2958,
      "like to play ": 2959,
      "swam": 2960,
      "ft the ": 2961,
      "toward": 2962,
      "wanted to go ": 2963,
      "had lots of fun.\n": 2964,
      "Daisy ": 2965,
      "sign ": 2966,
      "sug": 2967,
      ". He looked ": 2968,
      "to the park": 2969,
      "didn't want to ": 2970,
      "branch": 2971,
      "egg": 2972,
      "bee ": 2973,
      ".\" Tom ": 2974,
      ". After ": 2975,
      "put them ": 2976,
      "here": 2977,
      "sister": 2978,
      "sound ": 2979,
      "got the ": 2980,
      "turt": 2981,
      "brave": 2982,
      "tired": 2983,
      "roll": 2984,
      "rolled ": 2985,
      "in the wood": 2986,
      ", and a ": 2987,
      "went down": 2988,
      "came into the ": 2989,
      "pack": 2990,
      "sharing ": 2991,
      "his": 2992,
      "gave her": 2993,
      "ed but ": 2994,
      "in the air": 2995,
      "stood ": 2996,
      "asked the ": 2997,
      "Ch": 2998,
      "kick": 2999,
      "ng": 3000,
      "ama": 3001,
      ". He did not ": 3002,
      "forest ": 3003,
      "fell": 3004,
      "?\" she ": 3005,
      "was so excited": 3006,
      "mother ": 3007,
      "inside and ": 3008,
      "cir": 3009,
      "playing, ": 3010,
      "Tim and his mom ": 3011,
      "My ": 3012,
      ", you ": 3013,
      " hur": 3014,
      "was ab": 3015,
      "make it ": 3016,
      "eyes": 3017,
      "ge and ": 3018,
      "val": 3019,
      "scared.\n": 3020,
      "everything ": 3021,
      ". They played with the ": 3022,
      "cloud ": 3023,
      "du": 3024,
      "three years ": 3025,
      ". And they all lived happily ever after.\n": 3026,
      "old": 3027,
      "said, \"Hello, ": 3028,
      "way to ": 3029,
      "broke ": 3030,
      "little bird named ": 3031,
      "touch the ": 3032,
      "continued to ": 3033,
      "era": 3034,
      ". Tim wanted to ": 3035,
      "showed it ": 3036,
      "everywher": 3037,
      "top of the ": 3038,
      "it.\"\n": 3039,
      "in the forest": 3040,
      "saw a small ": 3041,
      "them. They ": 3042,
      ". Fin": 3043,
      "even more ": 3044,
      "broken": 3045,
      "music": 3046,
      "perfect ": 3047,
      "dep": 3048,
      ". He tried to ": 3049,
      "world": 3050,
      "pass": 3051,
      "plain": 3052,
      "'t": 3053,
      "said, \"Don't worry, ": 3054,
      "ent and ": 3055,
      "told the ": 3056,
      "wet ": 3057,
      "had an idea. She ": 3058,
      "princes": 3059,
      "suc": 3060,
      "that they ": 3061,
      "hold ": 3062,
      "see a ": 3063,
      "f cour": 3064,
      "under a ": 3065,
      "needed to ": 3066,
      "Lily ask": 3067,
      "! You are ": 3068,
      "play with you": 3069,
      "heavy ": 3070,
      "end of the day, ": 3071,
      "vel": 3072,
      "few ": 3073,
      "helping ": 3074,
      "\"Wow, ": 3075,
      "cle ": 3076,
      "pan": 3077,
      "roa": 3078,
      "scared. They ": 3079,
      "crayon": 3080,
      "atu": 3081,
      "shiny and ": 3082,
      "Sarah ": 3083,
      "depend": 3084,
      "grab": 3085,
      "way, ": 3086,
      ". Tim felt ": 3087,
      "pet ": 3088,
      "rom that day on, the ": 3089,
      "had so much fun ": 3090,
      "done, ": 3091,
      "young ": 3092,
      "their mom": 3093,
      "who loved to ": 3094,
      " around and ": 3095,
      "scared of the ": 3096,
      " anymore": 3097,
      "just a ": 3098,
      "bur": 3099,
      "was scared and ": 3100,
      "ing. The ": 3101,
      "play.\n": 3102,
      "car and ": 3103,
      "play with his ": 3104,
      "sky": 3105,
      "Once upon a time, there was a little girl named Lily. She ": 3106,
      "used the ": 3107,
      "flowers": 3108,
      "monster ": 3109,
      "had so much fun": 3110,
      "strange ": 3111,
      "grandma": 3112,
      "puddle": 3113,
      "ger and ": 3114,
      "hug ": 3115,
      "up, ": 3116,
      "cool ": 3117,
      "spa": 3118,
      " and the bird ": 3119,
      "swing ": 3120,
      "ice cream ": 3121,
      "tasty ": 3122,
      "jour": 3123,
      "tic": 3124,
      ". Do you want to ": 3125,
      "Once upon a time, a ": 3126,
      "poli": 3127,
      "smoo": 3128,
      "together, ": 3129,
      "made her ": 3130,
      "with her friends": 3131,
      "hard and ": 3132,
      "mum": 3133,
      "wish": 3134,
      "stone": 3135,
      "Spot and ": 3136,
      "who liked to ": 3137,
      "miss": 3138,
      "problem": 3139,
      "what": 3140,
      " ac": 3141,
      "ing. She ": 3142,
      "too. They ": 3143,
      "showed the ": 3144,
      "sun went down": 3145,
      "carefully ": 3146,
      "Tommy ": 3147,
      "wind came and ": 3148,
      "happy. He ": 3149,
      "bru": 3150,
      "Bobo ": 3151,
      " hugg": 3152,
      "ate the ": 3153,
      "have to be ": 3154,
      "join ": 3155,
      "dress ": 3156,
      "face ": 3157,
      "Good ": 3158,
      ". I am ": 3159,
      "grow ": 3160,
      "rom ": 3161,
      "s to the ": 3162,
      "lly": 3163,
      " house": 3164,
      "curious and ": 3165,
      "fairy ": 3166,
      "lonel": 3167,
      "- ": 3168,
      "things.\n": 3169,
      " a big hug": 3170,
      "sure": 3171,
      "Anna and ": 3172,
      "shell": 3173,
      "throw": 3174,
      "played together and ": 3175,
      "wind ble": 3176,
      "inv": 3177,
      "ang": 3178,
      "it a ": 3179,
      "neck": 3180,
      "on the table": 3181,
      "excited ": 3182,
      "balloon": 3183,
      "seem": 3184,
      "cal ": 3185,
      "on the swing": 3186,
      "took turns ": 3187,
      "about ": 3188,
      "Sure": 3189,
      "berri": 3190,
      "cat named Tom. Tom ": 3191,
      " away from the ": 3192,
      "explore the ": 3193,
      "bowl": 3194,
      "lso ": 3195,
      "hear ": 3196,
      "ched ": 3197,
      "for her": 3198,
      "pop": 3199,
      "pond ": 3200,
      "heard the ": 3201,
      "all day long": 3202,
      "inter": 3203,
      ". Now ": 3204,
      "party": 3205,
      "\"S": 3206,
      "Olli": 3207,
      "jell": 3208,
      "When the ": 3209,
      "grew ": 3210,
      "them to ": 3211,
      "find": 3212,
      "food and ": 3213,
      "Mr. B": 3214,
      "warm and ": 3215,
      "with lots of ": 3216,
      "coat": 3217,
      "thinks ": 3218,
      "wise old ": 3219,
      ". They saw a big ": 3220,
      "said, \"I am ": 3221,
      "got to ": 3222,
      "The cat ": 3223,
      "read the ": 3224,
      "banan": 3225,
      "too, ": 3226,
      "ome": 3227,
      "so she ": 3228,
      "when the ": 3229,
      "tain": 3230,
      "!\" So, ": 3231,
      ". But he ": 3232,
      "use the ": 3233,
      "tree. He ": 3234,
      "What are you do": 3235,
      "mach": 3236,
      "looked and ": 3237,
      "Lily's mom ": 3238,
      "draw ": 3239,
      "said, \"We ": 3240,
      "Anna and Ben ": 3241,
      "did not know what to do": 3242,
      ",\" said the ": 3243,
      "magical ": 3244,
      "Duck": 3245,
      " and started to ": 3246,
      "that was ": 3247,
      "e and see": 3248,
      " asked his ": 3249,
      "friends and played together ": 3250,
      "snake ": 3251,
      ", I ": 3252,
      "ined ": 3253,
      "was gone": 3254,
      "friend, the ": 3255,
      "power": 3256,
      ". \"I ": 3257,
      "ran away": 3258,
      "harm": 3259,
      "everywhere ": 3260,
      "said, \"I will ": 3261,
      "enjoyed the ": 3262,
      "landed ": 3263,
      "the best of friends.\n": 3264,
      "Lat": 3265,
      "hid ": 3266,
      "hed": 3267,
      "rabbit": 3268,
      "thi": 3269,
      "cak": 3270,
      "head and ": 3271,
      "looking for ": 3272,
      "ie ": 3273,
      "bow ": 3274,
      "bush": 3275,
      "hot": 3276,
      "Hi ": 3277,
      "danced ": 3278,
      "use": 3279,
      ". He is ": 3280,
      ". He said ": 3281,
      "else": 3282,
      "close": 3283,
      "ran and ": 3284,
      "sist": 3285,
      ". And from that day on, ": 3286,
      "to his mom": 3287,
      "ignor": 3288,
      "bottle ": 3289,
      "org": 3290,
      "learned to ": 3291,
      "reli": 3292,
      "was very sad": 3293,
      "press": 3294,
      "tion": 3295,
      "yummy": 3296,
      "look for ": 3297,
      "having fun": 3298,
      "paper ": 3299,
      "Come ": 3300,
      ". Can you ": 3301,
      "stri": 3302,
      "Lila": 3303,
      "wanted to play with ": 3304,
      "moved ": 3305,
      "far away": 3306,
      "new friend.\n": 3307,
      "tid": 3308,
      "instea": 3309,
      "said, \"You ": 3310,
      "coin": 3311,
      "bigger and ": 3312,
      "Whisker": 3313,
      " as he ": 3314,
      "Joe ": 3315,
      "farmer ": 3316,
      ". Anna ": 3317,
      "spark": 3318,
      "forgot": 3319,
      "sky ": 3320,
      "was very happy to ": 3321,
      "saw a little ": 3322,
      "swer": 3323,
      "playing with ": 3324,
      "watched ": 3325,
      "threw the ": 3326,
      "there were two ": 3327,
      "secret ": 3328,
      "imal ": 3329,
      "less ": 3330,
      "ing. They ": 3331,
      "friends. The ": 3332,
      "owl": 3333,
      "jok": 3334,
      "the bird ": 3335,
      "world ": 3336,
      "cat and ": 3337,
      "it was too ": 3338,
      "together every day": 3339,
      "kids": 3340,
      "On the ": 3341,
      "! \n": 3342,
      "sham": 3343,
      "feels ": 3344,
      "sandwi": 3345,
      "hand ": 3346,
      "sand ": 3347,
      "that it ": 3348,
      "poin": 3349,
      "dog and ": 3350,
      "ation": 3351,
      "away": 3352,
      "bough": 3353,
      "to eat": 3354,
      "go to ": 3355,
      "bird's ": 3356,
      "build": 3357,
      "aniz": 3358,
      "lay ": 3359,
      "en a ": 3360,
      "went back ": 3361,
      "Once upon a time, there ": 3362,
      "ect ": 3363,
      "ugly ": 3364,
      "swim ": 3365,
      "dance": 3366,
      "didn't know what to do": 3367,
      "Now ": 3368,
      "e. It ": 3369,
      "scre": 3370,
      "hand and ": 3371,
      "one and ": 3372,
      "nest ": 3373,
      ".\" She ": 3374,
      "walked": 3375,
      "huge ": 3376,
      "what the ": 3377,
      "leaves ": 3378,
      "organiz": 3379,
      "ener": 3380,
      "with its ": 3381,
      "grate": 3382,
      "key": 3383,
      "cannot ": 3384,
      ". So, she ": 3385,
      "y animal": 3386,
      "confu": 3387,
      "went home ": 3388,
      "shelf": 3389,
      "You're welcom": 3390,
      "rom then ": 3391,
      "to help ": 3392,
      "cap": 3393,
      "likes to ": 3394,
      ",\" Tom ": 3395,
      " asked the ": 3396,
      "safe.\n": 3397,
      "street": 3398,
      "happy. She ": 3399,
      "learned a ": 3400,
      "under a big ": 3401,
      "used ": 3402,
      " appl": 3403,
      "stopped and ": 3404,
      "walked and ": 3405,
      "followed the ": 3406,
      "\"Hello, ": 3407,
      "ch a ": 3408,
      "The man ": 3409,
      "played with his ": 3410,
      "Max, ": 3411,
      "puzz": 3412,
      "fell down": 3413,
      "grabbed the ": 3414,
      "ab": 3415,
      "prac": 3416,
      "’t ": 3417,
      "fea": 3418,
      "was very happy ": 3419,
      "back.\n": 3420,
      "said, \"I can ": 3421,
      "had lots of fun ": 3422,
      "dragon ": 3423,
      "blank": 3424,
      "Mum": 3425,
      ". The little ": 3426,
      "you have to ": 3427,
      "One day, they ": 3428,
      "Lucy. She ": 3429,
      "It's okay, ": 3430,
      ". He felt ": 3431,
      "elder": 3432,
      "pulled ": 3433,
      "when you ": 3434,
      "Sue's ": 3435,
      "another ": 3436,
      "played": 3437,
      ". One day, while ": 3438,
      "went for a walk ": 3439,
      "maybe ": 3440,
      "without ": 3441,
      "boss": 3442,
      "said, \"Yes": 3443,
      "helped the ": 3444,
      "Tom was ": 3445,
      "mean to ": 3446,
      "made it ": 3447,
      "for a long ": 3448,
      "loved to play with her ": 3449,
      "understand": 3450,
      "interest": 3451,
      "ffi": 3452,
      "tun": 3453,
      "radi": 3454,
      "sharp ": 3455,
      "enjoy ": 3456,
      "Just then": 3457,
      " away, ": 3458,
      "stepped ": 3459,
      "\"I ": 3460,
      "son ": 3461,
      "gray ": 3462,
      ". They were so ": 3463,
      "home.\n": 3464,
      ". Inside the ": 3465,
      "kne": 3466,
      "wol": 3467,
      "tower ": 3468,
      "sack": 3469,
      "ddenly ": 3470,
      "talking ": 3471,
      "Sally": 3472,
      ".”\n": 3473,
      "pile ": 3474,
      "board ": 3475,
      "ladd": 3476,
      ".\" Sue ": 3477,
      "beak": 3478,
      "surprised. They ": 3479,
      "count": 3480,
      "thank you": 3481,
      ". And they lived happily ever after.\n": 3482,
      "gether, they ": 3483,
      "Wow": 3484,
      "eld ": 3485,
      "toy and ": 3486,
      "eter": 3487,
      "noticed ": 3488,
      "wave ": 3489,
      "myster": 3490,
      "sco": 3491,
      ". I love ": 3492,
      "ful and ": 3493,
      ". When he ": 3494,
      "bunn": 3495,
      "Budd": 3496,
      "whole ": 3497,
      "e's ": 3498,
      "tter and ": 3499,
      "silly ": 3500,
      ". Then": 3501,
      ". Finally, ": 3502,
      "jun": 3503,
      "any": 3504,
      ". The boy ": 3505,
      "get": 3506,
      "did not like the ": 3507,
      "hide and see": 3508,
      "splash": 3509,
      "living room": 3510,
      "wild ": 3511,
      "was an": 3512,
      "e, he ": 3513,
      "did you ": 3514,
      "Po": 3515,
      " again ": 3516,
      "ould": 3517,
      "The girl ": 3518,
      "bring ": 3519,
      ". I want to ": 3520,
      "mom and dad": 3521,
      "before": 3522,
      "friends were ": 3523,
      "went to his ": 3524,
      "became good friends.\n": 3525,
      "blue": 3526,
      "e is ": 3527,
      "to do": 3528,
      "!\" Sam ": 3529,
      "cute ": 3530,
      "night, ": 3531,
      "stret": 3532,
      "In the end": 3533,
      "trouble": 3534,
      "Zo": 3535,
      "agre": 3536,
      "dry ": 3537,
      "sne": 3538,
      "sang": 3539,
      "toy.\n": 3540,
      "?\" Her mom ": 3541,
      "Fluffy": 3542,
      " anymore.\n": 3543,
      "crab ": 3544,
      "done ": 3545,
      "was still ": 3546,
      "were best ": 3547,
      "One day, Lily ": 3548,
      "empt": 3549,
      "remember ": 3550,
      " and he ": 3551,
      "star ": 3552,
      "ston": 3553,
      "from a ": 3554,
      "teddy bear": 3555,
      "won't ": 3556,
      "s with ": 3557,
      ". Thank ": 3558,
      "went to the store ": 3559,
      "wear ": 3560,
      "took it ": 3561,
      "drove ": 3562,
      "had a lot of fun": 3563,
      "fil": 3564,
      "loved her ": 3565,
      ". Now": 3566,
      "to get ": 3567,
      "left ": 3568,
      ", but then ": 3569,
      "cow": 3570,
      "trick": 3571,
      " asked.\n": 3572,
      "Don't be ": 3573,
      "zoom": 3574,
      "here ": 3575,
      ", Lily": 3576,
      " and his ": 3577,
      "live ": 3578,
      "reach ": 3579,
      "One day, a girl named ": 3580,
      "Suddenly, the ": 3581,
      "soft and ": 3582,
      "soup": 3583,
      "enough ": 3584,
      "lunch": 3585,
      "Ell": 3586,
      "s. It ": 3587,
      "ven": 3588,
      "hat and ": 3589,
      "was big and ": 3590,
      "net": 3591,
      "see a big ": 3592,
      "faster": 3593,
      "just like ": 3594,
      "mine": 3595,
      "One day, a little girl named Lily ": 3596,
      "prot": 3597,
      "children ": 3598,
      "piece of ": 3599,
      "elderly ": 3600,
      "board": 3601,
      ". Tim's mom ": 3602,
      "At the park": 3603,
      ". As he ": 3604,
      ". Suddenly, the ": 3605,
      "fancy ": 3606,
      " his mom ": 3607,
      "made him ": 3608,
      "said, \"Okay, ": 3609,
      "swimm": 3610,
      "delicious ": 3611,
      "Tin": 3612,
      "erpill": 3613,
      "in its ": 3614,
      "spin": 3615,
      "spid": 3616,
      "bigger": 3617,
      "from his ": 3618,
      " asked, \"": 3619,
      "turned into a ": 3620,
      "thought it would be fun to ": 3621,
      "ct": 3622,
      "unny ": 3623,
      ". Bu": 3624,
      "because it was ": 3625,
      ". When the ": 3626,
      "wonderful ": 3627,
      "wav": 3628,
      "forgive ": 3629,
      "when": 3630,
      "side ": 3631,
      "felt happy and ": 3632,
      "took her ": 3633,
      "turn ": 3634,
      "threw ": 3635,
      "lam": 3636,
      "low ": 3637,
      "help me": 3638,
      "sick": 3639,
      "parents ": 3640,
      "age ": 3641,
      "mark": 3642,
      "first ": 3643,
      "running ": 3644,
      "Dogg": 3645,
      "rid": 3646,
      "get a ": 3647,
      "toys.\n": 3648,
      "quiet": 3649,
      "Be ": 3650,
      "Ro": 3651,
      "hell": 3652,
      "go and ": 3653,
      "basket": 3654,
      "stum": 3655,
      "sorry and ": 3656,
      "Thank you for ": 3657,
      "ja": 3658,
      "Once upon a time, there was a big, ": 3659,
      "had a toy ": 3660,
      "play with their ": 3661,
      "slide": 3662,
      "that he could ": 3663,
      "closer": 3664,
      "please ": 3665,
      "mista": 3666,
      "was very happy. He ": 3667,
      "owner ": 3668,
      "wheel": 3669,
      "dran": 3670,
      "to see ": 3671,
      "got a ": 3672,
      "out of ": 3673,
      "monkey ": 3674,
      "flying ": 3675,
      "Tim and the ": 3676,
      "too. He ": 3677,
      "climbed the ": 3678,
      "plane ": 3679,
      "cross the ": 3680,
      "flew away": 3681,
      "dry": 3682,
      "lt": 3683,
      "chick": 3684,
      "smile.\n": 3685,
      "?\" he ": 3686,
      "caterpill": 3687,
      "near a ": 3688,
      "brother ": 3689,
      "again.\n": 3690,
      "having a ": 3691,
      "Jer": 3692,
      "cy": 3693,
      "kite ": 3694,
      "night ": 3695,
      "you a ": 3696,
      "be friends": 3697,
      "past": 3698,
      "put": 3699,
      "brid": 3700,
      ". Tim and Sue ": 3701,
      " away and ": 3702,
      "sun was shining": 3703,
      "wag": 3704,
      "help.\n": 3705,
      ". It was so ": 3706,
      "issor": 3707,
      "walked to the ": 3708,
      "gives ": 3709,
      "It is ": 3710,
      "drink ": 3711,
      "different": 3712,
      "fit ": 3713,
      "pat": 3714,
      "stra": 3715,
      "stand": 3716,
      "belong": 3717,
      "bird flew ": 3718,
      "would not ": 3719,
      "box.\n": 3720,
      "house.\n": 3721,
      "drink": 3722,
      "followed ": 3723,
      ". Soon, ": 3724,
      "jar ": 3725,
      "Sam, ": 3726,
      "over and ": 3727,
      "their hom": 3728,
      "Ben and Lily ": 3729,
      "That": 3730,
      "together. The ": 3731,
      "leaf ": 3732,
      "games": 3733,
      "scissor": 3734,
      "promise ": 3735,
      "bed ": 3736,
      "pil": 3737,
      "letter ": 3738,
      "happil": 3739,
      "cher": 3740,
      "looks": 3741,
      "hands": 3742,
      "couldn't wait to ": 3743,
      "Billy ": 3744,
      "Lisa": 3745,
      "TV": 3746,
      "um ": 3747,
      "ird ": 3748,
      ". He asked his ": 3749,
      ". She asked her ": 3750,
      "card": 3751,
      "Mommy": 3752,
      ", and they both ": 3753,
      "that's ": 3754,
      ". Tim and Sam ": 3755,
      "dropped the ": 3756,
      ". Do you ": 3757,
      "e, they ": 3758,
      "pot": 3759,
      "One day, Tom ": 3760,
      "have the ": 3761,
      "story": 3762,
      "her.\n": 3763,
      "himself": 3764,
      " as they ": 3765,
      "Tom and Sue ": 3766,
      "clean and ": 3767,
      "voice": 3768,
      "norma": 3769,
      "peace": 3770,
      "celebr": 3771,
      "Be": 3772,
      "fing": 3773,
      "was angr": 3774,
      "pol": 3775,
      " any ": 3776,
      "?\" His mom ": 3777,
      "flowers ": 3778,
      "running": 3779,
      "milk": 3780,
      "bed and ": 3781,
      "sy": 3782,
      ". Some": 3783,
      ". The ball ": 3784,
      "left": 3785,
      "fron": 3786,
      "saw that the ": 3787,
      "bird.\n": 3788,
      "what it was": 3789,
      "nice to ": 3790,
      "chair ": 3791,
      "finish": 3792,
      "realized that ": 3793,
      "ama ": 3794,
      "e, the ": 3795,
      ", and Tim ": 3796,
      "cow ": 3797,
      "smile": 3798,
      "tried ": 3799,
      ". They were all ": 3800,
      "flowers and ": 3801,
      ". There were ": 3802,
      "?\" she ask": 3803,
      "Jim": 3804,
      "felt so ": 3805,
      "?\" Tom ": 3806,
      "thought of a ": 3807,
      "Spot, ": 3808,
      "Please, ": 3809,
      "pile of ": 3810,
      "ey, ": 3811,
      "had been ": 3812,
      ", and they were ": 3813,
      "be careful ": 3814,
      "still": 3815,
      "Bob. Bob ": 3816,
      "keep the ": 3817,
      "Chirp": 3818,
      "ya": 3819,
      "was not a ": 3820,
      "you to ": 3821,
      "people in the ": 3822,
      "stair": 3823,
      "wondered ": 3824,
      "penc": 3825,
      "hum": 3826,
      "bike ": 3827,
      "lemon": 3828,
      "seat": 3829,
      "The boy ": 3830,
      "trees and ": 3831,
      "in his room": 3832,
      "careful and ": 3833,
      "slowly ": 3834,
      ". She saw the ": 3835,
      ", and her ": 3836,
      "found some ": 3837,
      "share and ": 3838,
      "sign": 3839,
      "storm ": 3840,
      "It": 3841,
      "le to ": 3842,
      "lucky ": 3843,
      "Amy and ": 3844,
      "osa": 3845,
      "! We ": 3846,
      "One day, while ": 3847,
      "their mom ": 3848,
      "learned to be ": 3849,
      "fire ": 3850,
      "strong and ": 3851,
      "wind came and ble": 3852,
      "osaur": 3853,
      "Rex": 3854,
      "boy and ": 3855,
      "with you": 3856,
      "more": 3857,
      "f you ": 3858,
      "jumped and ": 3859,
      "rock and ": 3860,
      "stick and ": 3861,
      "voic": 3862,
      "dinosaur": 3863,
      "dirty ": 3864,
      "driver ": 3865,
      "visit ": 3866,
      "balloon ": 3867,
      "ddenly, a ": 3868,
      "Lily and Max ": 3869,
      "ches ": 3870,
      " and said, \"I ": 3871,
      "hard to ": 3872,
      "went to the park with his mom": 3873,
      "gun": 3874,
      ", jump": 3875,
      "eng": 3876,
      ". She had a ": 3877,
      "playing and ": 3878,
      "creati": 3879,
      "liked to play with his ": 3880,
      "to make the ": 3881,
      ". Every day ": 3882,
      ". Then, he ": 3883,
      "cookies": 3884,
      "?\" asked ": 3885,
      "jewel": 3886,
      "invit": 3887,
      "\"Thank you, ": 3888,
      "At ": 3889,
      "kay": 3890,
      "itch ": 3891,
      "dow ": 3892,
      ". The little girl ": 3893,
      "carri": 3894,
      "saw an ": 3895,
      "! Tim ": 3896,
      "in the park.\n": 3897,
      "curious": 3898,
      "\"OK": 3899,
      "bounc": 3900,
      "\"Hi, ": 3901,
      "\"Mom, ": 3902,
      "oli": 3903,
      "sil": 3904,
      ". She liked to ": 3905,
      "point": 3906,
      "gift ": 3907,
      "dog named Max ": 3908,
      "cross": 3909,
      "y. It ": 3910,
      "roar": 3911,
      "carry ": 3912,
      "The little ": 3913,
      "ski": 3914,
      "laugh and ": 3915,
      "tele": 3916,
      " anything ": 3917,
      "caught ": 3918,
      "wide ": 3919,
      "was amaz": 3920,
      "could talk": 3921,
      "have fun.\n": 3922,
      "way.\n": 3923,
      "said, \"I want to ": 3924,
      "up and down": 3925,
      "heard a loud ": 3926,
      "spoon": 3927,
      "apple ": 3928,
      " ate the ": 3929,
      "Fin ": 3930,
      "jar": 3931,
      "e to the ": 3932,
      "will": 3933,
      "stuck": 3934,
      ". They learned that ": 3935,
      ". She saw a ": 3936,
      "dizz": 3937,
      "home and ": 3938,
      "slide and ": 3939,
      " hugged ": 3940,
      "nose": 3941,
      ". The girl ": 3942,
      "neigh": 3943,
      "The moral of the story is that ": 3944,
      "Tim. He ": 3945,
      "tree. The bird ": 3946,
      "When they got ": 3947,
      "if he ": 3948,
      "used his ": 3949,
      "having so much ": 3950,
      "lost his ": 3951,
      "questi": 3952,
      "Molly ": 3953,
      "elephant ": 3954,
      "forever.\n": 3955,
      "But": 3956,
      "wom": 3957,
      "itch": 3958,
      "was a big ": 3959,
      "pizz": 3960,
      "catch": 3961,
      "cut": 3962,
      "After a while, ": 3963,
      "clu": 3964,
      "cup ": 3965,
      "hair ": 3966,
      "it started to ": 3967,
      "Lily a": 3968,
      "fake ": 3969,
      "in it": 3970,
      "Sam's ": 3971,
      "felt ba": 3972,
      "Momo ": 3973,
      "colors and ": 3974,
      "picture of a ": 3975,
      ". Sara ": 3976,
      "doctor ": 3977,
      "obe": 3978,
      "pin": 3979,
      "wet and ": 3980,
      "e, there was a ": 3981,
      "my friend": 3982,
      "busy ": 3983,
      "saw a big tree ": 3984,
      " alone": 3985,
      "show his ": 3986,
      "deep": 3987,
      "sad because ": 3988,
      "said yes": 3989,
      "worked together to ": 3990,
      "journe": 3991,
      "ak": 3992,
      "glow": 3993,
      "teach ": 3994,
      "The dog ": 3995,
      "you can": 3996,
      "Spot's ": 3997,
      "Tim and his ": 3998,
      "fter the ": 3999,
      "plant ": 4000,
      "quiet ": 4001,
      "shouted ": 4002,
      "lt ": 4003,
      "st and ": 4004,
      ". The bug ": 4005,
      ". She looked ": 4006,
      "happy, ": 4007,
      "sat down ": 4008,
      "teacher ": 4009,
      "Pet": 4010,
      "usu": 4011,
      "ve.\n": 4012,
      "ensi": 4013,
      "up.\n": 4014,
      "felt sad": 4015,
      "loved to eat ": 4016,
      "more careful ": 4017,
      "everyone": 4018,
      ". You have to ": 4019,
      ". Tim's ": 4020,
      "understand ": 4021,
      "land ": 4022,
      ". O": 4023,
      ". Kitty ": 4024,
      ". She had ": 4025,
      "bell": 4026,
      "fright": 4027,
      "balan": 4028,
      "made them ": 4029,
      "Thank you": 4030,
      "expensi": 4031,
      "magic": 4032,
      "remembered ": 4033,
      "tomor": 4034,
      "respec": 4035,
      "stir": 4036,
      "?\" Lily ": 4037,
      "puts ": 4038,
      ". They were both ": 4039,
      "lour": 4040,
      "hugged her ": 4041,
      "fly a": 4042,
      "talk to ": 4043,
      "Give ": 4044,
      "song ": 4045,
      " and then ": 4046,
      ". Their ": 4047,
      "sang ": 4048,
      "imag": 4049,
      "happy that ": 4050,
      "said to the ": 4051,
      "made sure ": 4052,
      "trip": 4053,
      "them. She ": 4054,
      "excited.\n": 4055,
      "knew it was ": 4056,
      ". Then, they ": 4057,
      " amazing ": 4058,
      "mirr": 4059,
      "field": 4060,
      "spot ": 4061,
      ". But she ": 4062,
      "laughing and ": 4063,
      "dest": 4064,
      "takes ": 4065,
      "gro": 4066,
      "h, ": 4067,
      "both": 4068,
      " all his ": 4069,
      "important": 4070,
      ". Bobo ": 4071,
      "Buddy ": 4072,
      "frighten": 4073,
      "fli": 4074,
      ". One day ": 4075,
      "The big ": 4076,
      "fear": 4077,
      "toys. They ": 4078,
      "ground and ": 4079,
      "ouldn't ": 4080,
      "den ": 4081,
      "!\" Sue ": 4082,
      "friends, and they ": 4083,
      "from her ": 4084,
      "hugs ": 4085,
      "in the park. They ": 4086,
      "monster": 4087,
      "time for ": 4088,
      "ship": 4089,
      "ell ": 4090,
      "y a ": 4091,
      "left the ": 4092,
      "whis": 4093,
      "bubble": 4094,
      "felt": 4095,
      "ball. He ": 4096,
      "says. He ": 4097,
      "leave ": 4098,
      ". From that day on, the ": 4099,
      "noise and ": 4100,
      "embar": 4101,
      ". You are very ": 4102,
      "spoil": 4103,
      "treasure": 4104,
      "filled with ": 4105,
      "embarra": 4106,
      "went on a ": 4107,
      "pocket": 4108,
      "one day, ": 4109,
      "told him": 4110,
      "jump and ": 4111,
      "selfish": 4112,
      "box of ": 4113,
      "should have ": 4114,
      "sat on the ": 4115,
      "bench": 4116,
      "succes": 4117,
      "f course, ": 4118,
      "lar ": 4119,
      "yo": 4120,
      "irt ": 4121,
      "irst": 4122,
      "want the ": 4123,
      " and the cat ": 4124,
      "giant ": 4125,
      "they always ": 4126,
      "nerv": 4127,
      "sometimes, ": 4128,
      "Once upon a time, in a big forest": 4129,
      "I am a ": 4130,
      "lin": 4131,
      "might": 4132,
      "toma": 4133,
      ", please": 4134,
      ". Sam": 4135,
      ". They looked ": 4136,
      "was a good ": 4137,
      ".\" He ": 4138,
      "Max's ": 4139,
      "lived in the ": 4140,
      ". We will ": 4141,
      "ed about ": 4142,
      "until he ": 4143,
      ", there were ": 4144,
      "cold and ": 4145,
      "dragon": 4146,
      "I don't know": 4147,
      "friend, Sam, ": 4148,
      ",\" the ": 4149,
      "au": 4150,
      "ort ": 4151,
      "is the ": 4152,
      "cket and ": 4153,
      "help his ": 4154,
      "felt better": 4155,
      "decided ": 4156,
      "cried and ": 4157,
      "had a fun day ": 4158,
      "hill ": 4159,
      "play in the ": 4160,
      "take it ": 4161,
      "illy ": 4162,
      "Insid": 4163,
      "waved goodby": 4164,
      "large ": 4165,
      "carrot": 4166,
      "Lun": 4167,
      "s that ": 4168,
      "unkno": 4169,
      "name was ": 4170,
      "for their ": 4171,
      "little girl called ": 4172,
      "credi": 4173,
      "finis": 4174,
      "sleep ": 4175,
      "smiled. \"": 4176,
      "chang": 4177,
      "closer to the ": 4178,
      "You're welcome, ": 4179,
      "s his ": 4180,
      "incredi": 4181,
      "stand ": 4182,
      "something new": 4183,
      "took his ": 4184,
      "gigg": 4185,
      "playing with his ": 4186,
      "decor": 4187,
      "bowl ": 4188,
      "anymore": 4189,
      ". Wi": 4190,
      "stuck in a ": 4191,
      "smart": 4192,
      "sau": 4193,
      "step": 4194,
      ". The car ": 4195,
      "ess ": 4196,
      "funn": 4197,
      "Your ": 4198,
      ". But they ": 4199,
      "on the ground. He ": 4200,
      "gentle ": 4201,
      ". But, ": 4202,
      " at the park.\n": 4203,
      "found": 4204,
      "ss.\n": 4205,
      ". They would ": 4206,
      ". They were happy and ": 4207,
      "give the ": 4208,
      "smelly ": 4209,
      "mom, \"Can I ": 4210,
      "touched the ": 4211,
      "They all ": 4212,
      "blanket": 4213,
      "had no ": 4214,
      "decided to go ": 4215,
      "lost my ": 4216,
      "dirty": 4217,
      "had a lot of fun ": 4218,
      "Good job": 4219,
      "What's ": 4220,
      "bite ": 4221,
      "fe ": 4222,
      "swan": 4223,
      "s. They are ": 4224,
      "tom": 4225,
      "letter": 4226,
      "seed": 4227,
      "road": 4228,
      "there was ": 4229,
      "Sam. Sam ": 4230,
      "find his ": 4231,
      ". They also ": 4232,
      "dog.\n": 4233,
      "if he could ": 4234,
      "tee": 4235,
      " as fast": 4236,
      "laughed and said, \"": 4237,
      " agreed and ": 4238,
      "paint ": 4239,
      "Okay, ": 4240,
      "very an": 4241,
      "ing, he ": 4242,
      "es. He ": 4243,
      "can we ": 4244,
      "looked up": 4245,
      "though ": 4246,
      "share his ": 4247,
      "Sara and Ben ": 4248,
      "down from the ": 4249,
      " anything": 4250,
      "round": 4251,
      "these ": 4252,
      "up a ": 4253,
      "was very sad and ": 4254,
      "came out": 4255,
      "hole and ": 4256,
      "elp": 4257,
      "herself": 4258,
      "high and ": 4259,
      "was sad.\n": 4260,
      "until they ": 4261,
      "taking ": 4262,
      "phone ": 4263,
      "knew the ": 4264,
      "sky was ": 4265,
      "Lily was ": 4266,
      "lovely ": 4267,
      "happy. The ": 4268,
      "said no": 4269,
      "hide ": 4270,
      "corn ": 4271,
      "castle ": 4272,
      "kitten ": 4273,
      "rel": 4274,
      ". They decided to ": 4275,
      "very happy.\n": 4276,
      "of them ": 4277,
      "start": 4278,
      "found a small ": 4279,
      "put his ": 4280,
      "Bob and ": 4281,
      "showed her ": 4282,
      ". We are ": 4283,
      "colors": 4284,
      "to make a ": 4285,
      "field ": 4286,
      "?\" Lily ask": 4287,
      "put a ": 4288,
      "sat down and ": 4289,
      "pictures ": 4290,
      "running and ": 4291,
      "sounds ": 4292,
      "finished ": 4293,
      "sees the ": 4294,
      "treasure ": 4295,
      "number": 4296,
      "straw": 4297,
      "sca": 4298,
      "” \n": 4299,
      "lift": 4300,
      "it was very ": 4301,
      "mask": 4302,
      "so much": 4303,
      "help her ": 4304,
      "pota": 4305,
      "!\" He ": 4306,
      "little boy named Tim. Tim ": 4307,
      "dress and ": 4308,
      "curious ": 4309,
      "barked ": 4310,
      "robot ": 4311,
      "pump": 4312,
      ". Spo": 4313,
      "friends. They all ": 4314,
      "park and ": 4315,
      "dish": 4316,
      "said, \"Yes, let's ": 4317,
      "clapped and ": 4318,
      "hiding ": 4319,
      "went home and ": 4320,
      "drive ": 4321,
      "Mom and Dad ": 4322,
      "zi": 4323,
      "boy. He ": 4324,
      "wasn't ": 4325,
      "was also ": 4326,
      "no long": 4327,
      "tired and ": 4328,
      "ice-": 4329,
      "cat and the dog ": 4330,
      "Remy ": 4331,
      " ate ": 4332,
      "who liked to play ": 4333,
      "learned that it is ": 4334,
      "head ": 4335,
      "blocks ": 4336,
      "enjoyed ": 4337,
      "butterfly": 4338,
      "promised to ": 4339,
      "practic": 4340,
      "feather": 4341,
      "ak ": 4342,
      "gener": 4343,
      "come and ": 4344,
      "even if ": 4345,
      "grass and ": 4346,
      "eyes ": 4347,
      "rainbow": 4348,
      "tomorrow": 4349,
      "stup": 4350,
      "said. He ": 4351,
      "!\" She ": 4352,
      "loved his ": 4353,
      "played in the ": 4354,
      "was so excited to ": 4355,
      "too high": 4356,
      "Mommy, ": 4357,
      ". I can ": 4358,
      "tear": 4359,
      "person ": 4360,
      "bble ": 4361,
      ". The fish ": 4362,
      "Lila and ": 4363,
      "that could ": 4364,
      "saw him ": 4365,
      "lake": 4366,
      "spicy ": 4367,
      "what is ": 4368,
      "happy to have ": 4369,
      "old man": 4370,
      "closer and ": 4371,
      "disgu": 4372,
      "Mar": 4373,
      "bitt": 4374,
      "cur": 4375,
      "s, the ": 4376,
      ". Lily and ": 4377,
      ". One sunny day, ": 4378,
      "lly and ": 4379,
      "explain": 4380,
      "umb": 4381,
      "toys, ": 4382,
      "Where ": 4383,
      "happy to be ": 4384,
      "fruit ": 4385,
      "kitchen and ": 4386,
      "push the ": 4387,
      "pieces ": 4388,
      "table and ": 4389,
      "gave him a ": 4390,
      "Mimi ": 4391,
      "three years old and ": 4392,
      ", as ": 4393,
      "Jill ": 4394,
      "lim": 4395,
      "nois": 4396,
      "pper": 4397,
      "upset": 4398,
      "her favorite ": 4399,
      "put on her ": 4400,
      ". Timmy ": 4401,
      "where the ": 4402,
      "Then ": 4403,
      "write ": 4404,
      "turtle ": 4405,
      "ed its ": 4406,
      ". The mouse ": 4407,
      "days ": 4408,
      "matter ": 4409,
      "helped her ": 4410,
      "face and ": 4411,
      "pretty and ": 4412,
      "strat": 4413,
      ". His friends ": 4414,
      "Sarah": 4415,
      "sorry to ": 4416,
      "furry ": 4417,
      "calm": 4418,
      " hurt ": 4419,
      "year ": 4420,
      ", Tom": 4421,
      "pper ": 4422,
      "let the ": 4423,
      "better and ": 4424,
      "e, she ": 4425,
      "played all day": 4426,
      "tries to ": 4427,
      "gave it ": 4428,
      "farm ": 4429,
      "ventur": 4430,
      "waiting ": 4431,
      "chocol": 4432,
      "window and ": 4433,
      "grumpy ": 4434,
      "amaz": 4435,
      "rom then on, ": 4436,
      "ap ": 4437,
      "sit": 4438,
      "yard ": 4439,
      "life": 4440,
      "with it": 4441,
      "started to feel ": 4442,
      "too. She ": 4443,
      "Do you want to play with me": 4444,
      "bin": 4445,
      "to ask ": 4446,
      "is my ": 4447,
      "rich ": 4448,
      ". He thought ": 4449,
      "looked": 4450,
      "kind to ": 4451,
      "cake and ": 4452,
      "terri": 4453,
      " adventure ": 4454,
      "!\" said the ": 4455,
      "was full of ": 4456,
      "in the box": 4457,
      ". It is a ": 4458,
      "comes ": 4459,
      "foot": 4460,
      "pres": 4461,
      "pushed ": 4462,
      "more fun ": 4463,
      "show her ": 4464,
      "cat named Tom ": 4465,
      "friends. They like to play ": 4466,
      "over to ": 4467,
      "disgust": 4468,
      "barn": 4469,
      "le.\n": 4470,
      "times ": 4471,
      "with your ": 4472,
      "was very excited": 4473,
      "full": 4474,
      "pillow": 4475,
      "fooli": 4476,
      "squa": 4477,
      "children": 4478,
      "\"Look": 4479,
      ". One ": 4480,
      ". Can I ": 4481,
      "enor": 4482,
      "it could ": 4483,
      "ed. \n": 4484,
      "go away": 4485,
      "The end.\n": 4486,
      "fill": 4487,
      "Timmy": 4488,
      "bird was ": 4489,
      "felt sad ": 4490,
      "path": 4491,
      "juice ": 4492,
      "moun": 4493,
      "said, \"I don't ": 4494,
      "learned that being ": 4495,
      "cookies ": 4496,
      "smiled at ": 4497,
      "bounce ": 4498,
      "other animals ": 4499,
      ". In the end, ": 4500,
      "obedi": 4501,
      "enormou": 4502,
      "ly.\n": 4503,
      ". They said ": 4504,
      "you must ": 4505,
      "smile and ": 4506,
      "else ": 4507,
      "felt bad ": 4508,
      "things and ": 4509,
      "vege": 4510,
      "tea ": 4511,
      "yellow": 4512,
      "moral of the story is to always ": 4513,
      "Just then, ": 4514,
      "grabbed ": 4515,
      "black": 4516,
      "medic": 4517,
      "said, \"Yes, but ": 4518,
      "able": 4519,
      "ite and ": 4520,
      "said. She ": 4521,
      "went to a ": 4522,
      "! Can I ": 4523,
      "!\" Mia ": 4524,
      "grou": 4525,
      " him.\n": 4526,
      "rocket": 4527,
      "animals": 4528,
      "to play with.\n": 4529,
      "Mimi": 4530,
      "confuse": 4531,
      "\".\n": 4532,
      "ctu": 4533,
      "mind ": 4534,
      "recor": 4535,
      "was al": 4536,
      "rope ": 4537,
      "was very good at ": 4538,
      "fall ": 4539,
      "like your ": 4540,
      "come to ": 4541,
      "diffi": 4542,
      "fish named ": 4543,
      "chas": 4544,
      "cut the ": 4545,
      "disappear": 4546,
      "difficu": 4547,
      "!”\n": 4548,
      "nut": 4549,
      "vi": 4550,
      ". They saw a ": 4551,
      ". The bear ": 4552,
      "came back": 4553,
      "make her ": 4554,
      "mud ": 4555,
      "mush": 4556,
      "put her ": 4557,
      "if she could ": 4558,
      "perfor": 4559,
      "frustrat": 4560,
      "had a great time ": 4561,
      "something unexpected happened. A big ": 4562,
      "Inside the ": 4563,
      "Bir": 4564,
      "body ": 4565,
      "not be ": 4566,
      "gaz": 4567,
      "on the wall": 4568,
      "together.\"\n": 4569,
      ". One day, Tom ": 4570,
      "find my ": 4571,
      "friends with the ": 4572,
      "things that ": 4573,
      "girl named Sue. Sue ": 4574,
      "opened the box and ": 4575,
      "noticed a ": 4576,
      "towards ": 4577,
      "Later, ": 4578,
      "I can't ": 4579,
      ".\" Max ": 4580,
      "smiled.\n": 4581,
      "great": 4582,
      "others": 4583,
      "priz": 4584,
      "heart": 4585,
      "happy to see ": 4586,
      "chase ": 4587,
      "guit": 4588,
      "clapped ": 4589,
      "bunny named ": 4590,
      "smelled ": 4591,
      "thought for a moment and said, \"": 4592,
      "dangerous": 4593,
      "Then, a ": 4594,
      "brush": 4595,
      "And": 4596,
      "omy ": 4597,
      "in fron": 4598,
      "Lily.\n": 4599,
      "outside. He ": 4600,
      "sister ": 4601,
      "told her": 4602,
      "kitchen ": 4603,
      "taste ": 4604,
      "hungry": 4605,
      "held the ": 4606,
      "candy ": 4607,
      "Bella ": 4608,
      "whisper": 4609,
      "Oh no": 4610,
      "king": 4611,
      "tent": 4612,
      "it too": 4613,
      "cat and a ": 4614,
      "Lucy's ": 4615,
      "play with your ": 4616,
      ". I was ": 4617,
      "such a ": 4618,
      "eat it": 4619,
      "was sad, but he ": 4620,
      "hidden ": 4621,
      "Just then, a ": 4622,
      "destro": 4623,
      "kni": 4624,
      "sup": 4625,
      "wouldn't ": 4626,
      "The little boy ": 4627,
      ", and then ": 4628,
      "gather": 4629,
      "did not give up": 4630,
      "toy box": 4631,
      "what happened": 4632,
      "do something ": 4633,
      "water.\n": 4634,
      "clean the ": 4635,
      "had many friends ": 4636,
      "people": 4637,
      "naughty ": 4638,
      "hide and seek": 4639,
      "by and ": 4640,
      "impress": 4641,
      "llow ": 4642,
      "rived ": 4643,
      "saw him": 4644,
      "Tim.\n": 4645,
      "looked for the ": 4646,
      "tried and ": 4647,
      "sad. He ": 4648,
      "put on his ": 4649,
      "sock": 4650,
      "room.\n": 4651,
      "him to ": 4652,
      "scared. He ": 4653,
      ". So, the ": 4654,
      "button ": 4655,
      "Once upon a time, in a small house, there lived a ": 4656,
      "mic": 4657,
      "tough": 4658,
      "ard and ": 4659,
      ". The end.\n": 4660,
      "said, \"Tim, ": 4661,
      "his favorite ": 4662,
      "taugh": 4663,
      "?\" Sue ": 4664,
      "pray": 4665,
      "just wanted to ": 4666,
      " all day and ": 4667,
      "came to help": 4668,
      ". Then, she ": 4669,
      "run to the ": 4670,
      "tree. The tree ": 4671,
      "question": 4672,
      "Are you ": 4673,
      "day, a ": 4674,
      ", but they were ": 4675,
      "new toy": 4676,
      "playing in the ": 4677,
      "coura": 4678,
      "do that": 4679,
      "weird ": 4680,
      ". They played together": 4681,
      "moral of the story is": 4682,
      "fence": 4683,
      "jung": 4684,
      "very angr": 4685,
      "hit the ": 4686,
      "jea": 4687,
      "won the ": 4688,
      ". The frog ": 4689,
      ", \"Let's ": 4690,
      "it is": 4691,
      "okay ": 4692,
      "child ": 4693,
      "said, \"S": 4694,
      "said, \"Wow, ": 4695,
      "cars ": 4696,
      "went back hom": 4697,
      "tree to ": 4698,
      "would always ": 4699,
      ". They ask": 4700,
      "man named ": 4701,
      "famous ": 4702,
      "Daddy ": 4703,
      "very much.\n": 4704,
      "mouth and ": 4705,
      "smart ": 4706,
      "face.\n": 4707,
      "knew he had to ": 4708,
      "Sure, ": 4709,
      "mysterious ": 4710,
      "jealou": 4711,
      "riv": 4712,
      ". He saw the ": 4713,
      "parro": 4714,
      "new things": 4715,
      "knocked ": 4716,
      "care of ": 4717,
      "jelly": 4718,
      "ey ": 4719,
      "ty ": 4720,
      "is so ": 4721,
      "unusu": 4722,
      "there lived a ": 4723,
      "more.\n": 4724,
      "green": 4725,
      "supp": 4726,
      "proud": 4727,
      ". When she ": 4728,
      "What do you ": 4729,
      "tired ": 4730,
      "was scared ": 4731,
      "bald ": 4732,
      "pool": 4733,
      "word ": 4734,
      "bigger ": 4735,
      "tried": 4736,
      "andy ": 4737,
      "beach ": 4738,
      "friend named ": 4739,
      "small and ": 4740,
      "yummy food": 4741,
      "family.\n": 4742,
      "went outside to play": 4743,
      "gave her a ": 4744,
      "banana": 4745,
      "\"We ": 4746,
      "Now, ": 4747,
      "m a ": 4748,
      "save ": 4749,
      "ing on the ": 4750,
      "bul": 4751,
      "buy a ": 4752,
      "we are ": 4753,
      "chees": 4754,
      "near a big ": 4755,
      "garden, ": 4756,
      "One day, a little girl named Sue ": 4757,
      "One day, a little girl named Lucy ": 4758,
      "became best friends.\n": 4759,
      "cient ": 4760,
      "circle": 4761,
      "burn": 4762,
      "powerful ": 4763,
      "side of the ": 4764,
      "Blue ": 4765,
      "Wi": 4766,
      "eg": 4767,
      "led and ": 4768,
      "oc": 4769,
      "pe and ": 4770,
      "orig": 4771,
      "return": 4772,
      "it back": 4773,
      " asks.\n": 4774,
      "glasse": 4775,
      "origin": 4776,
      "pir": 4777,
      ". Can we ": 4778,
      "near ": 4779,
      "there.\n": 4780,
      "lax": 4781,
      "ket ": 4782,
      "pig": 4783,
      "pig ": 4784,
      "shiny": 4785,
      "tem": 4786,
      "Mia's ": 4787,
      "princess ": 4788,
      "smooth ": 4789,
      "bigger and bigger": 4790,
      "stone ": 4791,
      "That's a ": 4792,
      "n't": 4793,
      "were not ": 4794,
      "hopp": 4795,
      "scary": 4796,
      "walked a": 4797,
      "ed that the ": 4798,
      ". It was a big ": 4799,
      ". Sue and ": 4800,
      ". Every day, he would ": 4801,
      "valu": 4802,
      "?\" he ask": 4803,
      "ast": 4804,
      "away ": 4805,
      "sour": 4806,
      "shy ": 4807,
      "fier": 4808,
      "played with her ": 4809,
      "loud and ": 4810,
      ". You should ": 4811,
      "next to ": 4812,
      "shouted, \"": 4813,
      "blocks": 4814,
      "job ": 4815,
      " agreed": 4816,
      "later": 4817,
      "measure ": 4818,
      "grateful ": 4819,
      "throw ": 4820,
      "ve and ": 4821,
      "you will ": 4822,
      "ed that he ": 4823,
      "er and high": 4824,
      "went to her ": 4825,
      "to play with the ": 4826,
      "lesson ": 4827,
      "phone": 4828,
      "which ": 4829,
      "pulled the ": 4830,
      "rest of the ": 4831,
      "sneez": 4832,
      "enormous ": 4833,
      "ed it": 4834,
      "red": 4835,
      "wanted to try ": 4836,
      ". It had ": 4837,
      "on its ": 4838,
      "it was not ": 4839,
      "walking": 4840,
      "puppy ": 4841,
      "didn't know": 4842,
      "grass ": 4843,
      "had a fun day": 4844,
      "open it": 4845,
      "pieces": 4846,
      "realized ": 4847,
      "Grandma ": 4848,
      "woman ": 4849,
      "\"Maybe ": 4850,
      "onto the ": 4851,
      "orry, ": 4852,
      "relax": 4853,
      "stam": 4854,
      "nothing ": 4855,
      "exi": 4856,
      ". She would ": 4857,
      "become ": 4858,
      "it with ": 4859,
      "his friend ": 4860,
      "wanted to see what was ": 4861,
      "muff": 4862,
      "But then": 4863,
      "When they ": 4864,
      "things to ": 4865,
      "loved to play outside ": 4866,
      " all day. They ": 4867,
      "couldn't believe ": 4868,
      "wanted a ": 4869,
      "bright and ": 4870,
      "close to the ": 4871,
      "soup ": 4872,
      "never seen ": 4873,
      ". At the end of the day, ": 4874,
      "\"Can we ": 4875,
      "wake ": 4876,
      "very a": 4877,
      "liv": 4878,
      "worm": 4879,
      "outside to ": 4880,
      "ran away ": 4881,
      "join": 4882,
      ".\" The bird ": 4883,
      "helped him ": 4884,
      "ship ": 4885,
      "hoped ": 4886,
      "But then, something unexpected happened. The ": 4887,
      "round and ": 4888,
      "Leo ": 4889,
      "Ollie ": 4890,
      "mirror": 4891,
      "no longer ": 4892,
      "micro": 4893,
      "que ": 4894,
      "s. \n": 4895,
      "uncomfor": 4896,
      "name is ": 4897,
      "them. He ": 4898,
      "backyard": 4899,
      "warn": 4900,
      "come back": 4901,
      "games and ": 4902,
      "explore ": 4903,
      "remembered the ": 4904,
      "unique ": 4905,
      "ac": 4906,
      "opar": 4907,
      "s. \"": 4908,
      " as a ": 4909,
      ". They did not ": 4910,
      "shirt": 4911,
      "'s house": 4912,
      "cage": 4913,
      "smiles and ": 4914,
      "bus ": 4915,
      "looked up and ": 4916,
      ". Fin ": 4917,
      "everything": 4918,
      "clum": 4919,
      "Mia. Mia ": 4920,
      "Kitty and ": 4921,
      "listened to the ": 4922,
      "smiled. She ": 4923,
      "spot": 4924,
      "minut": 4925,
      "forgot about the ": 4926,
      "wolf ": 4927,
      "unknown ": 4928,
      "oce": 4929,
      "sack ": 4930,
      "they had to ": 4931,
      "played, ": 4932,
      "was a little ": 4933,
      "tain ": 4934,
      "ways": 4935,
      "with his friends.\n": 4936,
      "tree. They ": 4937,
      "got very ": 4938,
      " asked her ": 4939,
      "clever ": 4940,
      "smiled and said, \"Thank you, ": 4941,
      "sad because he ": 4942,
      "eating ": 4943,
      "zz ": 4944,
      "doctor": 4945,
      "villag": 4946,
      "vegetable": 4947,
      "Cat": 4948,
      "wip": 4949,
      "it up": 4950,
      "cars and ": 4951,
      "goes ": 4952,
      "! That ": 4953,
      "poor ": 4954,
      "eak": 4955,
      "toys. He ": 4956,
      "got to the ": 4957,
      "together every day.\n": 4958,
      ". Instea": 4959,
      "until the sun went down": 4960,
      "bby ": 4961,
      "ff ": 4962,
      "gy": 4963,
      "pink": 4964,
      "scat": 4965,
      ". The tree ": 4966,
      ". The box ": 4967,
      "lick": 4968,
      ". \"Let's ": 4969,
      "loved to play and ": 4970,
      "cat, ": 4971,
      "some food": 4972,
      "him a ": 4973,
      "juic": 4974,
      ". When they ": 4975,
      "his friends were ": 4976,
      "writ": 4977,
      "finish ": 4978,
      "freez": 4979,
      "hole in the ": 4980,
      "success": 4981,
      "e. Tim ": 4982,
      "ment": 4983,
      "wro": 4984,
      ", Lily ": 4985,
      " his": 4986,
      "lake ": 4987,
      "new toy ": 4988,
      "things. He ": 4989,
      "birds": 4990,
      "print": 4991,
      "her and said, \"": 4992,
      "cushi": 4993,
      "brown": 4994,
      "Can you help me ": 4995,
      "catch it": 4996,
      "stub": 4997,
      "sit on the ": 4998,
      "puzzle": 4999,
      "Jerry ": 5000,
      "Mama ": 5001,
      "glo": 5002,
      "doing ": 5003,
      "loy": 5004,
      ". She saw ": 5005,
      "seen": 5006,
      "I love ": 5007,
      ", but she was ": 5008,
      "could not": 5009,
      ".\" But ": 5010,
      ". And the ": 5011,
      "went to find ": 5012,
      "ation ": 5013,
      "music ": 5014,
      "money ": 5015,
      "sitting on a ": 5016,
      "neckla": 5017,
      "done": 5018,
      "idd": 5019,
      "play with his friends": 5020,
      "but he ": 5021,
      "Once upon a time, there was a boy named Tim. Tim ": 5022,
      "loves ": 5023,
      "cat.\n": 5024,
      "others.\n": 5025,
      "suddenly ": 5026,
      "bled ": 5027,
      ". It was a big, ": 5028,
      "sorry for ": 5029,
      "branche": 5030,
      "weak": 5031,
      "birthday ": 5032,
      "stubbor": 5033,
      "OK": 5034,
      "s her ": 5035,
      "on an": 5036,
      "his friends": 5037,
      "something special": 5038,
      "back to his ": 5039,
      "who could ": 5040,
      " again and ": 5041,
      "surprised. He ": 5042,
      ". This time, ": 5043,
      "better than ": 5044,
      "were playing in the park": 5045,
      "wagged his tail and ": 5046,
      "Be careful": 5047,
      "Little ": 5048,
      "lder": 5049,
      "p the ": 5050,
      "ved the ": 5051,
      "er. He ": 5052,
      "hett": 5053,
      "found it ": 5054,
      "did not like to ": 5055,
      "Tom.\n": 5056,
      " answer": 5057,
      "bird, ": 5058,
      "diam": 5059,
      "knew she ": 5060,
      "best friend, a ": 5061,
      "event": 5062,
      "working ": 5063,
      "don't you ": 5064,
      "mind": 5065,
      "became good friends and ": 5066,
      "hungry and ": 5067,
      "normal ": 5068,
      "yog": 5069,
      "incredible ": 5070,
      "3 ": 5071,
      "Their ": 5072,
      "band": 5073,
      "thirst": 5074,
      "independ": 5075,
      "was happy.\n": 5076,
      "er was ": 5077,
      "plat": 5078,
      ", \"Can I ": 5079,
      "fight ": 5080,
      "!\" Max ": 5081,
      "shake ": 5082,
      "them a ": 5083,
      "says. She ": 5084,
      "him. He ": 5085,
      "little girl named Lily ": 5086,
      "outside.\n": 5087,
      "velo": 5088,
      "never for": 5089,
      "making the ": 5090,
      "rude ": 5091,
      "animals were ": 5092,
      "laughed. They ": 5093,
      "proud of him": 5094,
      "dark and ": 5095,
      ". Together, they ": 5096,
      "birthday": 5097,
      "how": 5098,
      "ling ": 5099,
      "er than ": 5100,
      " how": 5101,
      "came out of the ": 5102,
      "had a big, ": 5103,
      "make you ": 5104,
      "?\" Tim": 5105,
      "even": 5106,
      "team": 5107,
      "girl named Lily. She ": 5108,
      "proud of her ": 5109,
      "soon.\n": 5110,
      "ce.\n": 5111,
      "tight ": 5112,
      "envelo": 5113,
      "I have ": 5114,
      "cod": 5115,
      "find it": 5116,
      "As Tim ": 5117,
      "knowing ": 5118,
      "met a big ": 5119,
      "better.\n": 5120,
      "was so happy. He ": 5121,
      "dinn": 5122,
      "!\" They both ": 5123,
      "search": 5124,
      "e. \n": 5125,
      "glu": 5126,
      "mother": 5127,
      "sigh": 5128,
      "lose ": 5129,
      "a was ": 5130,
      "they found the ": 5131,
      "helpful ": 5132,
      "part ": 5133,
      "spag": 5134,
      "many animal": 5135,
      ". But then, the ": 5136,
      "prun": 5137,
      "flexi": 5138,
      "snowman": 5139,
      "sugar": 5140,
      "spaghett": 5141,
      "ion ": 5142,
      "towel": 5143,
      ". The boat ": 5144,
      "had fun.\n": 5145,
      "on a big ": 5146,
      "sky and ": 5147,
      "looked around": 5148,
      "like it": 5149,
      "find out ": 5150,
      "took a big ": 5151,
      ",\" Mom ": 5152,
      "faster and ": 5153,
      "There ": 5154,
      "in her room": 5155,
      "before.\n": 5156,
      "break ": 5157,
      "e, but he ": 5158,
      "!” ": 5159,
      "I'": 5160,
      "kin ": 5161,
      "uli": 5162,
      " appear": 5163,
      ". One day, a ": 5164,
      ". Max and ": 5165,
      "bik": 5166,
      "leopar": 5167,
      "bell ": 5168,
      "said: \"": 5169,
      "bake ": 5170,
      "gho": 5171,
      "toys. She ": 5172,
      "pige": 5173,
      ". I don't ": 5174,
      "party, ": 5175,
      "Once upon a time, there was a little girl named Sue. Sue ": 5176,
      "drum": 5177,
      ". You are a good ": 5178,
      "frag": 5179,
      "finger": 5180,
      "dy": 5181,
      "arm": 5182,
      "nod": 5183,
      ". He saw ": 5184,
      "it would ": 5185,
      "with jo": 5186,
      "became a ": 5187,
      "chee": 5188,
      "making a ": 5189,
      "makes a ": 5190,
      "proud of her": 5191,
      "friends and played together every day.\n": 5192,
      "taught ": 5193,
      "fat ": 5194,
      "lph": 5195,
      "my.\n": 5196,
      "dolph": 5197,
      ". The squirrel ": 5198,
      ". She loved to ": 5199,
      "goat ": 5200,
      "play with her ": 5201,
      "met ": 5202,
      "run, jump": 5203,
      "cook ": 5204,
      ". Then he ": 5205,
      "change ": 5206,
      "paper and ": 5207,
      "deep brea": 5208,
      "pointed ": 5209,
      "cid": 5210,
      "hi": 5211,
      "s. Tim ": 5212,
      "in the tree": 5213,
      "!\" And ": 5214,
      "for dinner": 5215,
      "out.\n": 5216,
      "triang": 5217,
      "good and ": 5218,
      " asked": 5219,
      "wel ": 5220,
      "brilli": 5221,
      "crocod": 5222,
      "touch it": 5223,
      "Once upon a time, in a small house, there was a ": 5224,
      "pencil": 5225,
      "Mark ": 5226,
      "o and ": 5227,
      "pho": 5228,
      "yarn": 5229,
      "wash ": 5230,
      "repa": 5231,
      ". The sun was shining": 5232,
      ". She says ": 5233,
      "little mouse ": 5234,
      "looked very ": 5235,
      "gave it to ": 5236,
      ". The bird was ": 5237,
      "played with the ball": 5238,
      "cookie ": 5239,
      "flash": 5240,
      "twins ": 5241,
      "Emma ": 5242,
      "ki": 5243,
      ". On": 5244,
      "ed at ": 5245,
      " and she ": 5246,
      "bot": 5247,
      "shor": 5248,
      "s and a ": 5249,
      "too. The ": 5250,
      "tie ": 5251,
      "dog's ": 5252,
      "inside. He ": 5253,
      "weigh": 5254,
      "leaves and ": 5255,
      "became best friends and ": 5256,
      "fly and ": 5257,
      "shared their ": 5258,
      "weal": 5259,
      "number ": 5260,
      "What are you doing": 5261,
      ", let's ": 5262,
      "make them ": 5263,
      "moon": 5264,
      "shop ": 5265,
      "class": 5266,
      "to play.\n": 5267,
      "whistle": 5268,
      "whistle ": 5269,
      "Ducky ": 5270,
      "caterpillar ": 5271,
      "flu": 5272,
      ". Some ": 5273,
      ". She told ": 5274,
      "offi": 5275,
      "wanted to see ": 5276,
      "felt happy ": 5277,
      "friends to ": 5278,
      "birds were ": 5279,
      "became very ": 5280,
      "shes ": 5281,
      "Amy. Amy ": 5282,
      "cheered ": 5283,
      "Whiskers ": 5284,
      "litt": 5285,
      "pok": 5286,
      "toy a": 5287,
      "ous and ": 5288,
      "named Tim. Tim ": 5289,
      "went into the ": 5290,
      "popu": 5291,
      "eager ": 5292,
      "sunglasse": 5293,
      "back in the ": 5294,
      "et me ": 5295,
      " as she ": 5296,
      "voca": 5297,
      "While they were ": 5298,
      "Lu": 5299,
      "bone": 5300,
      "oven": 5301,
      "ines": 5302,
      "bike": 5303,
      "was a bit ": 5304,
      "mom's ": 5305,
      " animal ": 5306,
      "fold": 5307,
      "your friend": 5308,
      "sweat": 5309,
      " and said, \"Hi, ": 5310,
      "gave them ": 5311,
      "Ben's ": 5312,
      ", he saw a ": 5313,
      ", he saw a big ": 5314,
      "pretty flower": 5315,
      "big and strong": 5316,
      "to make it ": 5317,
      "spott": 5318,
      "danced and ": 5319,
      "One day, a little girl named Mia ": 5320,
      "let me ": 5321,
      ". As she ": 5322,
      "dangerous ": 5323,
      ". In ": 5324,
      "have a big ": 5325,
      "bucket": 5326,
      "worm ": 5327,
      "tried again": 5328,
      "compet": 5329,
      "pupp": 5330,
      "little girl named Lily. She ": 5331,
      " along": 5332,
      ". It was the ": 5333,
      ", but he could not ": 5334,
      "if they ": 5335,
      "berry ": 5336,
      "drawing": 5337,
      "sorry. They ": 5338,
      "delicat": 5339,
      "idea ": 5340,
      "reliev": 5341,
      "bossy ": 5342,
      "How ": 5343,
      "mm": 5344,
      "in the living room": 5345,
      "were sad. They ": 5346,
      "Once upon a time, there were two ": 5347,
      "felt the ": 5348,
      "dog was ": 5349,
      "cat was ": 5350,
      "?\" \n": 5351,
      "muse": 5352,
      "meet ": 5353,
      ". But you ": 5354,
      "too.\"\n": 5355,
      "that he had ": 5356,
      "games ": 5357,
      "y. Kitty ": 5358,
      "health": 5359,
      "year old ": 5360,
      "egg ": 5361,
      "gat": 5362,
      "midd": 5363,
      "ve, ": 5364,
      "win the ": 5365,
      "ung ": 5366,
      "name": 5367,
      "coco": 5368,
      "mom.\n": 5369,
      "mommy": 5370,
      "did not see the ": 5371,
      "walking in the ": 5372,
      "chew": 5373,
      "cried ": 5374,
      "down to ": 5375,
      "could not find the ": 5376,
      "felt a little ": 5377,
      "Once upon a time, there was an ": 5378,
      "about the ": 5379,
      "gar": 5380,
      "ox": 5381,
      "ring": 5382,
      "sni": 5383,
      " afra": 5384,
      "ordin": 5385,
      ". He knew ": 5386,
      ". He ran ": 5387,
      "exam": 5388,
      "said, \"That ": 5389,
      "costum": 5390,
      "was so excit": 5391,
      "because the ": 5392,
      "every day ": 5393,
      ", so they ": 5394,
      "loved very much": 5395,
      "bad end": 5396,
      "became good friends": 5397,
      "went outside and ": 5398,
      "proud of his ": 5399,
      "chair and ": 5400,
      "bottle": 5401,
      "elephant": 5402,
      "caught the ": 5403,
      "soldi": 5404,
      "tunne": 5405,
      "spider ": 5406,
      "group ": 5407,
      "bone ": 5408,
      "n’t ": 5409,
      ". Jack ": 5410,
      "s for ": 5411,
      "wall ": 5412,
      "offe": 5413,
      "big tree": 5414,
      "card ": 5415,
      "wanted to make ": 5416,
      "coin ": 5417,
      "came back ": 5418,
      "her. She ": 5419,
      "we will ": 5420,
      "said, \"Yes, I ": 5421,
      "jumped on the ": 5422,
      "sweet and ": 5423,
      "At the end of the day, ": 5424,
      ". Soon, the ": 5425,
      "patient": 5426,
      "mom and dad. They ": 5427,
      "wind blew ": 5428,
      "this and ": 5429,
      ". Then, the ": 5430,
      "tomato": 5431,
      "\"W": 5432,
      "Every": 5433,
      "y.\"\n": 5434,
      ", \"I ": 5435,
      "big bird ": 5436,
      "figu": 5437,
      ". It was not ": 5438,
      ".\" Tim was ": 5439,
      "more and ": 5440,
      "we can": 5441,
      "run away": 5442,
      "hands.\n": 5443,
      "drew": 5444,
      "wished they had ": 5445,
      "looked and looked": 5446,
      ". Thank you ": 5447,
      "unusual ": 5448,
      "wer and ": 5449,
      " and it ": 5450,
      "bee": 5451,
      "bed, ": 5452,
      "boot": 5453,
      "his dad ": 5454,
      "essi": 5455,
      ". At ": 5456,
      "smiled and said, \"I ": 5457,
      "frown": 5458,
      ". So, they ": 5459,
      "bloom": 5460,
      "cat named Kitt": 5461,
      " after the ": 5462,
      "snake": 5463,
      "spoon ": 5464,
      ". Tim and his mom ": 5465,
      "that she could ": 5466,
      "discover": 5467,
      "might be ": 5468,
      "morning, ": 5469,
      "woke up": 5470,
      "sausa": 5471,
      "Blu": 5472,
      "coffe": 5473,
      "rh": 5474,
      "sour ": 5475,
      "enny ": 5476,
      " a little ": 5477,
      "sand and ": 5478,
      ". She is ": 5479,
      "mad ": 5480,
      "little bo": 5481,
      "in the grass": 5482,
      "were happy ": 5483,
      "red car": 5484,
      "Suddenly, a ": 5485,
      "around and ": 5486,
      "smiled, ": 5487,
      "lost her ": 5488,
      "y anymore": 5489,
      "twist": 5490,
      "Doggy ": 5491,
      "After the ": 5492,
      "Sun": 5493,
      "gor": 5494,
      "if": 5495,
      "topu": 5496,
      "ero": 5497,
      "little dog ": 5498,
      "!\" Anna ": 5499,
      "Once upon a time, there was a small ": 5500,
      "said it was ": 5501,
      "became friends and ": 5502,
      ". They played together and ": 5503,
      "Tom and Sam ": 5504,
      "monke": 5505,
      "fixed the ": 5506,
      "heard a loud noise": 5507,
      "their house": 5508,
      "\"Hey, ": 5509,
      "towards the ": 5510,
      "seemed ": 5511,
      "thick ": 5512,
      "gone ": 5513,
      "toy, ": 5514,
      "onest ": 5515,
      "real": 5516,
      ". They do not ": 5517,
      "roll ": 5518,
      "came over ": 5519,
      "start to ": 5520,
      "spent ": 5521,
      "mud": 5522,
      "fun day ": 5523,
      "hero": 5524,
      "We can ": 5525,
      "jud": 5526,
      "no matter ": 5527,
      "crying and ": 5528,
      "\"Oh no": 5529,
      "prince ": 5530,
      "picked it up": 5531,
      "match": 5532,
      "Soon, ": 5533,
      "Jimmy ": 5534,
      "mighty ": 5535,
      "pay ": 5536,
      "sla": 5537,
      "s, but ": 5538,
      " and her ": 5539,
      ". He had a big ": 5540,
      "seen ": 5541,
      "bak": 5542,
      "me.\"\n": 5543,
      "peek": 5544,
      "play with my ": 5545,
      "who lived ": 5546,
      "outside. She ": 5547,
      "cried": 5548,
      "rainbow ": 5549,
      "Then, something unexpected happened. The ": 5550,
      "tells ": 5551,
      "mix ": 5552,
      "move the ": 5553,
      "horse ": 5554,
      ". So he ": 5555,
      ". Buddy ": 5556,
      "tomob": 5557,
      "Jen ": 5558,
      "to go ": 5559,
      "has": 5560,
      "seed ": 5561,
      "tail ": 5562,
      ". One day, Max ": 5563,
      "quar": 5564,
      "float": 5565,
      "dadd": 5566,
      "daddy ": 5567,
      "take turn": 5568,
      "persist": 5569,
      " as the ": 5570,
      "look for the ": 5571,
      "scared anymor": 5572,
      ". It is not ": 5573,
      "ement": 5574,
      "flying": 5575,
      "surprised but ": 5576,
      "blue and ": 5577,
      "healthy ": 5578,
      "run, jump, and ": 5579,
      "gorill": 5580,
      "iga": 5581,
      "spl": 5582,
      "regu": 5583,
      "lolli": 5584,
      "it together": 5585,
      "said, \"Hi ": 5586,
      "last": 5587,
      "last ": 5588,
      "?\" Tom": 5589,
      "One day, a little boy named ": 5590,
      "swing and ": 5591,
      "what they ": 5592,
      "other kids ": 5593,
      "said, \"I lost my ": 5594,
      "rocket ": 5595,
      "learned that sharing ": 5596,
      "bunny": 5597,
      "having lots of ": 5598,
      "her mommy ": 5599,
      "had a lot of fun.\n": 5600,
      "branch ": 5601,
      "promise": 5602,
      "Bella": 5603,
      "can you help me ": 5604,
      "fierce ": 5605,
      "ad ": 5606,
      " asleep": 5607,
      "ine": 5608,
      "sett": 5609,
      "was a happy ": 5610,
      "!\" But ": 5611,
      "something else": 5612,
      "sad. She ": 5613,
      ". And that ": 5614,
      "up into the ": 5615,
      "happened.\n": 5616,
      "with a ball": 5617,
      " away from ": 5618,
      "fly high ": 5619,
      "behind a ": 5620,
      ". As they ": 5621,
      "cry and ": 5622,
      "tired but ": 5623,
      "splashed ": 5624,
      "thought about it and ": 5625,
      "disapp": 5626,
      "Mark": 5627,
      "bb": 5628,
      "dug": 5629,
      "s!\"\n": 5630,
      "slow ": 5631,
      "tan": 5632,
      " here ": 5633,
      ". They say ": 5634,
      ". The truck ": 5635,
      "said, \"I'm sorry, ": 5636,
      "funny": 5637,
      "coz": 5638,
      "on it.\n": 5639,
      "spe": 5640,
      "was so excited and ": 5641,
      "made of ": 5642,
      "find your ": 5643,
      "what he ": 5644,
      "colors ": 5645,
      "in her room. She ": 5646,
      "looked at each other and ": 5647,
      "print ": 5648,
      " angry and ": 5649,
      ". But then, something unexpected happened. The ": 5650,
      "was sad because he ": 5651,
      "milk ": 5652,
      ",\" Lily said.\n": 5653,
      "sang a ": 5654,
      "standing ": 5655,
      "cheese": 5656,
      "Mis": 5657,
      "ter ": 5658,
      "ere, ": 5659,
      "hal": 5660,
      "repe": 5661,
      "sea ": 5662,
      "chu": 5663,
      "Tim! ": 5664,
      "colour": 5665,
      "found out ": 5666,
      "spill": 5667,
      "ight and ": 5668,
      ". One day, Spot ": 5669,
      "red car ": 5670,
      "You can ": 5671,
      "note ": 5672,
      "dance and ": 5673,
      "smiled and said, \"O": 5674,
      "squi": 5675,
      "grap": 5676,
      "off his ": 5677,
      "messy ": 5678,
      "having fun.\n": 5679,
      "hairy ": 5680,
      "pulled and ": 5681,
      "lonely ": 5682,
      "tidy ": 5683,
      "octopu": 5684,
      "competit": 5685,
      "he saw a ": 5686,
      ". He decided to ": 5687,
      ", and everyone ": 5688,
      "wanted to eat the ": 5689,
      ". It looked ": 5690,
      "easy ": 5691,
      "for help ": 5692,
      "things, ": 5693,
      "meet": 5694,
      "push ": 5695,
      "tion ": 5696,
      "small bird ": 5697,
      "daught": 5698,
      "hear the ": 5699,
      "Lily and the ": 5700,
      "shine ": 5701,
      "near his ": 5702,
      "whale ": 5703,
      "higher and high": 5704,
      "opened the box": 5705,
      "opened the door and ": 5706,
      "Mom, can I ": 5707,
      "I can help you": 5708,
      "went to the park with her mom": 5709,
      "flag": 5710,
      "place.\n": 5711,
      "waited for the ": 5712,
      ". Sara": 5713,
      "bought ": 5714,
      "protect ": 5715,
      "moral of the story is: ": 5716,
      "me and ": 5717,
      "er. The ": 5718,
      "ed in ": 5719,
      "sala": 5720,
      "saved ": 5721,
      "rell": 5722,
      "a little ": 5723,
      ". They liked to play ": 5724,
      "libr": 5725,
      ". She tried to ": 5726,
      "mad": 5727,
      "! It's ": 5728,
      "found an ": 5729,
      "pull the ": 5730,
      "giving ": 5731,
      "nap ": 5732,
      "ed that she ": 5733,
      "ran around the ": 5734,
      "choose ": 5735,
      "singing": 5736,
      "empty ": 5737,
      "Lisa ": 5738,
      ". Spot and ": 5739,
      "tried and tried": 5740,
      "original ": 5741,
      "\"Can I ": 5742,
      "dough": 5743,
      "d of ": 5744,
      "is too ": 5745,
      ". She saw a big ": 5746,
      "goose ": 5747,
      "helpl": 5748,
      "smell ": 5749,
      "on the other ": 5750,
      "ball back": 5751,
      "for a whil": 5752,
      ". From then on, ": 5753,
      ". Even ": 5754,
      ", but he was too ": 5755,
      "thanked her ": 5756,
      "Dadd": 5757,
      "even when ": 5758,
      "fish and ": 5759,
      "new hom": 5760,
      "go home": 5761,
      "had a great day": 5762,
      "came. The ": 5763,
      "stuff": 5764,
      " adventure.\n": 5765,
      "wanted to help the bird": 5766,
      "thought for a moment and then ": 5767,
      ". Come ": 5768,
      "Jenny ": 5769,
      "distur": 5770,
      "interesting ": 5771,
      "humble ": 5772,
      "It's a ": 5773,
      "I'll ": 5774,
      "bout the ": 5775,
      "op ": 5776,
      "s. They were ": 5777,
      "thin ": 5778,
      "s it ": 5779,
      "to get the ": 5780,
      "to buy ": 5781,
      ". She felt ": 5782,
      "rope": 5783,
      "get to ": 5784,
      "pond and ": 5785,
      "cave": 5786,
      "start ": 5787,
      "one day ": 5788,
      "loved to play with ": 5789,
      "manag": 5790,
      "tice ": 5791,
      "sheep ": 5792,
      "shiver": 5793,
      "took a deep brea": 5794,
      ". Then they ": 5795,
      ". Anna": 5796,
      "moder": 5797,
      "was about to ": 5798,
      "Anna and Ben are ": 5799,
      "noticed something ": 5800,
      "hello": 5801,
      "umbrell": 5802,
      "Mary ": 5803,
      "eez": 5804,
      "tum": 5805,
      " and they ": 5806,
      " hop": 5807,
      "there, ": 5808,
      "treat ": 5809,
      "frid": 5810,
      "started to move": 5811,
      "trun": 5812,
      "compl": 5813,
      "ever.\n": 5814,
      ",\" Anna ": 5815,
      "together in the ": 5816,
      "proud and ": 5817,
      "squeez": 5818,
      "guil": 5819,
      "monkey": 5820,
      ". Then she ": 5821,
      "spray ": 5822,
      "expensive ": 5823,
      "teeth": 5824,
      "Mum ": 5825,
      "Rob": 5826,
      "band ": 5827,
      "ly a": 5828,
      "friendly": 5829,
      "Tim wanted to ": 5830,
      "Tim saw a ": 5831,
      "on the slid": 5832,
      "thought and ": 5833,
      "down.\n": 5834,
      "walked, ": 5835,
      "what you ": 5836,
      "what I ": 5837,
      "moon ": 5838,
      "motor": 5839,
      "because they ": 5840,
      "But then ": 5841,
      "hugged the ": 5842,
      "wished he had ": 5843,
      "bag and ": 5844,
      "snowman ": 5845,
      "do you want to ": 5846,
      "promised ": 5847,
      "secret": 5848,
      "friends. They played together every day": 5849,
      "Leo": 5850,
      "rare ": 5851,
      "way and ": 5852,
      "was happy again": 5853,
      " her and ": 5854,
      ". The water ": 5855,
      "batter": 5856,
      "ect": 5857,
      "boy who ": 5858,
      "soar": 5859,
      "creatu": 5860,
      "zzy ": 5861,
      "tail and ": 5862,
      "clean up the ": 5863,
      "visit": 5864,
      "Mom and Da": 5865,
      "loyal ": 5866,
      "\"M": 5867,
      "Fred ": 5868,
      "s. Lily ": 5869,
      "to their ": 5870,
      "to have ": 5871,
      "irt and ": 5872,
      "ing their ": 5873,
      ". She did not ": 5874,
      "that day": 5875,
      ", and Lily ": 5876,
      "trees, ": 5877,
      "was very excited and ": 5878,
      "spread ": 5879,
      "scared to ": 5880,
      "things. She ": 5881,
      "One day, a boy named ": 5882,
      "it was time for ": 5883,
      "pull ": 5884,
      "jolly ": 5885,
      "shoes": 5886,
      "scared of ": 5887,
      "ed, “": 5888,
      ", a big wind came and ble": 5889,
      "wanted to play too": 5890,
      "went away": 5891,
      " apple ": 5892,
      "bag of ": 5893,
      "swan ": 5894,
      "sniff": 5895,
      "eo": 5896,
      "my a": 5897,
      "xi": 5898,
      "zipp": 5899,
      "make": 5900,
      "sees a ": 5901,
      "tal": 5902,
      "es were ": 5903,
      "in my ": 5904,
      "scarf": 5905,
      "park.\n": 5906,
      "trust ": 5907,
      "box. They ": 5908,
      "her the ": 5909,
      "became the best of friends.\n": 5910,
      "louder": 5911,
      "broke": 5912,
      "down the hill": 5913,
      "painted ": 5914,
      "twins. They ": 5915,
      "!\" she said": 5916,
      "clapped her ": 5917,
      "mountain": 5918,
      "No": 5919,
      " hungr": 5920,
      "?\" Ben": 5921,
      "things. They ": 5922,
      "find something ": 5923,
      "couch": 5924,
      "dream ": 5925,
      ". Mim": 5926,
      "come back ": 5927,
      "in his yard": 5928,
      "was sad. He ": 5929,
      "said, \"Yes, you can ": 5930,
      "venture": 5931,
      "came to the park": 5932,
      " anyone ": 5933,
      "gently ": 5934,
      "desig": 5935,
      "cerea": 5936,
      "In the end, ": 5937,
      "present": 5938,
      "\"I'm sorry, ": 5939,
      "don": 5940,
      "s together.\n": 5941,
      "log": 5942,
      "unlock": 5943,
      "chor": 5944,
      "with big ": 5945,
      "pow": 5946,
      "new friends.\n": 5947,
      "felt good ": 5948,
      "started to talk": 5949,
      "find her ": 5950,
      "him and said, \"": 5951,
      "lead ": 5952,
      "ful.\n": 5953,
      "chew ": 5954,
      ", but he was ": 5955,
      "hands ": 5956,
      "come tru": 5957,
      "kids were ": 5958,
      ", there was a big ": 5959,
      "were very happy. They ": 5960,
      "! I will ": 5961,
      "was so happy! He ": 5962,
      ". While ": 5963,
      "queen ": 5964,
      "feel better.\n": 5965,
      "morning": 5966,
      "Emma": 5967,
      "smile on his ": 5968,
      "it was time to go home, ": 5969,
      "was able to ": 5970,
      "drank": 5971,
      "bridge": 5972,
      "cherri": 5973,
      "looks at ": 5974,
      ". Sometimes ": 5975,
      "noisy ": 5976,
      "middle ": 5977,
      "complet": 5978,
      "kid ": 5979,
      "mitt": 5980,
      "nur": 5981,
      "thie": 5982,
      ". On the ": 5983,
      "have": 5984,
      "it. \n": 5985,
      "said, \"H": 5986,
      "saw how ": 5987,
      "st the ": 5988,
      "bus": 5989,
      "worry": 5990,
      "bigge": 5991,
      ". But when he ": 5992,
      "liked to play and ": 5993,
      "little girl named Lily. Lily ": 5994,
      "create ": 5995,
      "if she ": 5996,
      "used her ": 5997,
      "watching ": 5998,
      "animals in the ": 5999,
      "shock": 6000,
      "people and ": 6001,
      "said goodbye and ": 6002,
      "looked around and saw a ": 6003,
      "Then, the ": 6004,
      "sister, ": 6005,
      "neighbor": 6006,
      "wrote ": 6007,
      "foun": 6008,
      "son": 6009,
      "y! ": 6010,
      "thu": 6011,
      " hid": 6012,
      "lie ": 6013,
      "send ": 6014,
      "happi": 6015,
      "big dog ": 6016,
      ". If you ": 6017,
      "law": 6018,
      "cauli": 6019,
      "would love ": 6020,
      "Sam are ": 6021,
      "follow ": 6022,
      "was not happy": 6023,
      "joined ": 6024,
      "house, ": 6025,
      ". My ": 6026,
      "where he ": 6027,
      "impati": 6028,
      "nice.\n": 6029,
      "Once upon a time, there was a little girl named Lucy. She ": 6030,
      "became best friends": 6031,
      "Once upon a time, in a small villag": 6032,
      "was so happy to see ": 6033,
      "lost and ": 6034,
      "it was too lat": 6035,
      "walked and walked ": 6036,
      "Fluffy. Fluffy ": 6037,
      "Everyone ": 6038,
      "Ali": 6039,
      "te the ": 6040,
      "order": 6041,
      "a great ": 6042,
      ". The sun ": 6043,
      "feet": 6044,
      "cactu": 6045,
      "cozy ": 6046,
      "mom, ": 6047,
      "bucket ": 6048,
      "cat's ": 6049,
      "found a long ": 6050,
      "playing with her ": 6051,
      "because he was ": 6052,
      "deer ": 6053,
      "Mia are ": 6054,
      "track": 6055,
      "good.\n": 6056,
      "eating the ": 6057,
      "smiled. He ": 6058,
      "splash ": 6059,
      "perfect": 6060,
      "!\" the ": 6061,
      "blanket ": 6062,
      "did not know how to ": 6063,
      "three years old": 6064,
      "potato": 6065,
      "wealthy ": 6066,
      "ed them ": 6067,
      ". They had ": 6068,
      "belong ": 6069,
      "base": 6070,
      "wanted to play": 6071,
      "of their ": 6072,
      ".\" Sam ": 6073,
      ". After a while, ": 6074,
      "green and ": 6075,
      "siz": 6076,
      "clear": 6077,
      "Mia's mom ": 6078,
      "glass ": 6079,
      ". Every day, the ": 6080,
      "follow the ": 6081,
      "like to play with ": 6082,
      "pengu": 6083,
      "Jack and ": 6084,
      "fix it": 6085,
      "shrink": 6086,
      "dependable ": 6087,
      "having so much fun": 6088,
      "ordinary ": 6089,
      "chubby ": 6090,
      "s. One day, ": 6091,
      "plan to ": 6092,
      ". Be": 6093,
      "mom hugged ": 6094,
      "Tom. She ": 6095,
      "tool": 6096,
      "go outside and ": 6097,
      "him. She ": 6098,
      ". They were not ": 6099,
      "closet": 6100,
      "heart ": 6101,
      "opened": 6102,
      "learned that sometimes, ": 6103,
      "used to ": 6104,
      ". They all played together and ": 6105,
      "selv": 6106,
      "feel the ": 6107,
      "grace": 6108,
      "two friends ": 6109,
      "Hello": 6110,
      "said, \"Oh no": 6111,
      "played with it": 6112,
      "teddy bear ": 6113,
      "started to cry.\n": 6114,
      "for being so ": 6115,
      "\"Tom, ": 6116,
      "charm": 6117,
      "y. \n": 6118,
      ". “": 6119,
      ". They put the ": 6120,
      "did it": 6121,
      "have many ": 6122,
      "we should ": 6123,
      " again. The ": 6124,
      ". The cat was ": 6125,
      "fisher": 6126,
      "laughed.\n": 6127,
      "keep it ": 6128,
      "called his ": 6129,
      "jeep ": 6130,
      "puddle ": 6131,
      "horse": 6132,
      "drank ": 6133,
      "peaceful ": 6134,
      "terrible ": 6135,
      "dinner ": 6136,
      ". Mimi ": 6137,
      "No ": 6138,
      "Ru": 6139,
      "ei": 6140,
      "ny and ": 6141,
      "s. But ": 6142,
      ". Just ": 6143,
      "it and said, \"": 6144,
      "said, \"W": 6145,
      "wanted to know ": 6146,
      "with my ": 6147,
      "lazy ": 6148,
      "be kind and ": 6149,
      "We are ": 6150,
      "scared. She ": 6151,
      "picked up ": 6152,
      "up the hill": 6153,
      "had an idea.\n": 6154,
      "were very happy.\n": 6155,
      "feeling very ": 6156,
      "back and for": 6157,
      "coming from the ": 6158,
      "build a ": 6159,
      "stopped": 6160,
      "cat named Kitty. Kitty ": 6161,
      "Jill": 6162,
      "hit ": 6163,
      "jam": 6164,
      "van": 6165,
      ". G": 6166,
      "ed him ": 6167,
      "was right": 6168,
      ". He says, \"": 6169,
      "lift the ": 6170,
      "happines": 6171,
      "gold ": 6172,
      "wanted to show ": 6173,
      "tap": 6174,
      "faces": 6175,
      "ball. They ": 6176,
      "scare ": 6177,
      "shak": 6178,
      "?\" Sam ": 6179,
      "compass": 6180,
      "ball to ": 6181,
      "knew that the ": 6182,
      "runs to the ": 6183,
      "Lily and her mom ": 6184,
      "Ann ": 6185,
      "happy to have a ": 6186,
      " here": 6187,
      ". No ": 6188,
      "crown": 6189,
      "had a great time": 6190,
      ". They were very happy and ": 6191,
      "eleva": 6192,
      "bird and the ": 6193,
      "search ": 6194,
      "robot": 6195,
      "grab the ": 6196,
      "stretch": 6197,
      "yach": 6198,
      "guitar": 6199,
      "the best": 6200,
      " and make ": 6201,
      "rema": 6202,
      "lock ": 6203,
      "you need to ": 6204,
      "Tim and said, \"": 6205,
      "on the door": 6206,
      "spun": 6207,
      ". They were happy ": 6208,
      "tree. She ": 6209,
      "became the best of ": 6210,
      "this is ": 6211,
      "vel ": 6212,
      "well ": 6213,
      "love you ": 6214,
      "liked to play with her ": 6215,
      "I will help you": 6216,
      "So they ": 6217,
      "promised to be ": 6218,
      "Once upon a time, in a small town, there lived a ": 6219,
      "delicious": 6220,
      "lamp": 6221,
      "chicken ": 6222,
      "Chirpy ": 6223,
      "dishwash": 6224,
      "eventu": 6225,
      "eople ": 6226,
      "por": 6227,
      "ed at the ": 6228,
      "to come ": 6229,
      "or a ": 6230,
      "river ": 6231,
      "wander": 6232,
      "happy song": 6233,
      "Who ": 6234,
      "complain": 6235,
      "ellig": 6236,
      "her a ": 6237,
      "others, ": 6238,
      "soon, ": 6239,
      "soap": 6240,
      "cloth": 6241,
      "inside. She ": 6242,
      "understood ": 6243,
      "intellig": 6244,
      "ruin": 6245,
      "blow": 6246,
      "y. Lucy ": 6247,
      ". One day, he saw a ": 6248,
      "The next day, the ": 6249,
      "Once upon a time, in a big forest, there was a ": 6250,
      "Lulu": 6251,
      "daughter ": 6252,
      "deter": 6253,
      "tro": 6254,
      "s together": 6255,
      ", you can ": 6256,
      "was excited to ": 6257,
      "was walking ": 6258,
      ". They saw ": 6259,
      "wanted to play with it": 6260,
      "man and ": 6261,
      "too high ": 6262,
      "home. He ": 6263,
      "Ben.\n": 6264,
      " all her ": 6265,
      ". Em": 6266,
      "to his friends": 6267,
      "talked and ": 6268,
      "cried.\n": 6269,
      "in the sky.\n": 6270,
      "Once upon a time, there was a little boy named Tim": 6271,
      "down the street": 6272,
      "barked and ": 6273,
      "tall and ": 6274,
      "broke into ": 6275,
      "bowl of ": 6276,
      "ocean": 6277,
      "disappo": 6278,
      "vide": 6279,
      "sail ": 6280,
      "bean": 6281,
      "you're ": 6282,
      "need a ": 6283,
      "said, \"Look, ": 6284,
      "said, \"Thank you for ": 6285,
      "said he ": 6286,
      "spir": 6287,
      "make a big ": 6288,
      "park, ": 6289,
      "greed": 6290,
      "boy named Tom. Tom ": 6291,
      "cloth ": 6292,
      ". It was big and ": 6293,
      "just like the ": 6294,
      "sad and angr": 6295,
      "give you ": 6296,
      ". When they got ": 6297,
      "Look at ": 6298,
      " anymore. The ": 6299,
      "Once upon a time, there was a little boy named Tim. Tim had a ": 6300,
      "asked, \"Why are you sad": 6301,
      "After they ": 6302,
      "open the box": 6303,
      "They are ": 6304,
      ". With": 6305,
      "scatter": 6306,
      "flexible ": 6307,
      "brilliant ": 6308,
      "er the ": 6309,
      "waff": 6310,
      "ino": 6311,
      "were twins ": 6312,
      ". All ": 6313,
      "bulan": 6314,
      "eler": 6315,
      "Sue. She ": 6316,
      "Lily and Ben are ": 6317,
      "string": 6318,
      " all.\n": 6319,
      "week": 6320,
      "clay": 6321,
      "chased ": 6322,
      "! The bird ": 6323,
      "bear named ": 6324,
      "listen to the ": 6325,
      "to help him": 6326,
      "!\" Lily said. \"": 6327,
      "said goodbye to ": 6328,
      "proud of their ": 6329,
      "storm": 6330,
      ",\" she said. \"": 6331,
      "shapes ": 6332,
      "machine ": 6333,
      "mistake": 6334,
      "Zi": 6335,
      "rug": 6336,
      " aun": 6337,
      "y the ": 6338,
      "refu": 6339,
      ". They want to ": 6340,
      "without": 6341,
      "lem": 6342,
      "forwar": 6343,
      "had the ": 6344,
      "time and ": 6345,
      "gasp": 6346,
      "new friends": 6347,
      ".\" Mia ": 6348,
      "looked for ": 6349,
      "Max was ": 6350,
      "qua": 6351,
      "But then, the ": 6352,
      "hard. The ": 6353,
      "string ": 6354,
      "book and ": 6355,
      "ed as the ": 6356,
      "game. They ": 6357,
      " anymore. He ": 6358,
      "careful not to ": 6359,
      "rough ": 6360,
      "owner": 6361,
      "clothes and ": 6362,
      "helping others ": 6363,
      "in front ": 6364,
      "determin": 6365,
      " att": 6366,
      ". Jane ": 6367,
      ". The moral of the story is that ": 6368,
      "you and ": 6369,
      "mail ": 6370,
      "very special ": 6371,
      "of animal": 6372,
      "big red ": 6373,
      "I have a ": 6374,
      "Tim asked his ": 6375,
      ". Ben and ": 6376,
      "Tom are ": 6377,
      ". \"Look, ": 6378,
      " ant ": 6379,
      "pear": 6380,
      "dog. He ": 6381,
      "leave the ": 6382,
      "told them ": 6383,
      "pretty.\n": 6384,
      "thankful ": 6385,
      "team ": 6386,
      ". Many ": 6387,
      "hurt and ": 6388,
      "quiet and ": 6389,
      "corner": 6390,
      "friends. They would ": 6391,
      "Once upon a time, there was a little dog named Spot. Spot ": 6392,
      ". Whisker": 6393,
      "does not want to ": 6394,
      "spray": 6395,
      "yourself": 6396,
      "under his ": 6397,
      "kitten": 6398,
      "Grandma": 6399,
      "crawled ": 6400,
      "spinn": 6401,
      "it started to rain": 6402,
      "celer": 6403,
      "hipp": 6404,
      "line ": 6405,
      ". J": 6406,
      "in.\n": 6407,
      "to take ": 6408,
      "lot.\n": 6409,
      ". They hop": 6410,
      "seat ": 6411,
      "little town": 6412,
      "were scared. They ": 6413,
      "played happily ": 6414,
      ". After a ": 6415,
      "had a special ": 6416,
      "side": 6417,
      "Tom. He ": 6418,
      "fun day": 6419,
      "hang": 6420,
      ". Tom was ": 6421,
      "books and ": 6422,
      ". Mr": 6423,
      "picked up": 6424,
      "rude": 6425,
      ". They are happy.\n": 6426,
      "flew down and ": 6427,
      "girl named Sue ": 6428,
      "shell ": 6429,
      "was very happy. She ": 6430,
      "blocks and ": 6431,
      "pushed and ": 6432,
      "steak": 6433,
      "brought it ": 6434,
      "Please don't ": 6435,
      "turtle": 6436,
      "didn't know what to do.\n": 6437,
      "chicken": 6438,
      "patter": 6439,
      "filled the ": 6440,
      "Twe": 6441,
      "plate ": 6442,
      "was a big, ": 6443,
      "that it was ": 6444,
      "carry": 6445,
      "her friend ": 6446,
      "with them": 6447,
      "on the ground and ": 6448,
      "island": 6449,
      "spit": 6450,
      "go fast": 6451,
      "put on the ": 6452,
      "so the ": 6453,
      "everyone.\n": 6454,
      "As they were ": 6455,
      "loved to play with": 6456,
      "shoes and ": 6457,
      "were very happy": 6458,
      "were very surprised. They ": 6459,
      "crying": 6460,
      "?\" The bird ": 6461,
      "over to the ": 6462,
      "wise owl ": 6463,
      "tired. They ": 6464,
      "climbed up the ": 6465,
      "smart and ": 6466,
      "Mr. Bro": 6467,
      "whenever ": 6468,
      "compassion": 6469,
      "s! ": 6470,
      "zoo": 6471,
      "animal ": 6472,
      "been": 6473,
      ", and even ": 6474,
      "wanted to eat ": 6475,
      "helmet": 6476,
      "cob": 6477,
      "found many ": 6478,
      "saw what ": 6479,
      "runs to ": 6480,
      "room, ": 6481,
      "nearby ": 6482,
      "blink": 6483,
      "! I want to ": 6484,
      "opened the door": 6485,
      "met a new friend ": 6486,
      "that she had ": 6487,
      ". Tim was happy ": 6488,
      "dirty and ": 6489,
      "banda": 6490,
      "carrot ": 6491,
      "Together, they ": 6492,
      "yawn": 6493,
      "felt bad and ": 6494,
      "embarrass": 6495,
      "tough ": 6496,
      "came over to play": 6497,
      "vie": 6498,
      "yet": 6499,
      "red, ": 6500,
      " hug": 6501,
      "for him ": 6502,
      "roof": 6503,
      "their favorite ": 6504,
      "for them": 6505,
      "buck": 6506,
      "hospit": 6507,
      " are not ": 6508,
      "found a shiny ": 6509,
      "him. They ": 6510,
      "hand.\n": 6511,
      "Jake ": 6512,
      "slide. They ": 6513,
      "Do not ": 6514,
      "thoughtful ": 6515,
      "One sunny day, a ": 6516,
      "truck and ": 6517,
      "count ": 6518,
      "orange": 6519,
      ", but it was too lat": 6520,
      "So the ": 6521,
      "throw the ": 6522,
      "sand castle": 6523,
      "generous ": 6524,
      " asham": 6525,
      "into a big ": 6526,
      "dove ": 6527,
      "seal ": 6528,
      "was all ": 6529,
      "helps ": 6530,
      "y as ": 6531,
      "on the grass": 6532,
      "Max. Max ": 6533,
      "bushe": 6534,
      "looked sad": 6535,
      "in your ": 6536,
      ". \"Mom, ": 6537,
      "hose ": 6538,
      "meow": 6539,
      "prepar": 6540,
      ",\" Tim ": 6541,
      "we have to ": 6542,
      "harder": 6543,
      "join the ": 6544,
      "Tim and his friends ": 6545,
      ". You can't ": 6546,
      "test": 6547,
      "square ": 6548,
      "sticker": 6549,
      "dropped ": 6550,
      "sorry.\n": 6551,
      "march": 6552,
      "Ben and Mia ": 6553,
      "soft, ": 6554,
      "grandma ": 6555,
      "was so happy that he ": 6556,
      "said goodbye to the ": 6557,
      "horn": 6558,
      "smile on her ": 6559,
      "did not listen. He ": 6560,
      "kicked the ": 6561,
      "ignorant": 6562,
      "Buddy": 6563,
      "Rex ": 6564,
      "balance ": 6565,
      "Luna ": 6566,
      "parrot ": 6567,
      "tunnel": 6568,
      "regular ": 6569,
      "lemon ": 6570,
      ", all the ": 6571,
      ".” \n": 6572,
      "Let me ": 6573,
      "Ted": 6574,
      "wid": 6575,
      "safel": 6576,
      "rever": 6577,
      "ribb": 6578,
      ". He put the ": 6579,
      "lit ": 6580,
      ". She says, \"": 6581,
      "were happy and ": 6582,
      "trem": 6583,
      "for me": 6584,
      "in trouble": 6585,
      "like that": 6586,
      "good idea": 6587,
      "dig ": 6588,
      "pebble ": 6589,
      ",\" Sam ": 6590,
      "himself ": 6591,
      "didn't mean to ": 6592,
      "in his mouth": 6593,
      "ed it to ": 6594,
      "smiled. They ": 6595,
      "played together every day": 6596,
      "y again.\n": 6597,
      "crack": 6598,
      " atta": 6599,
      ". Le": 6600,
      "barber ": 6601,
      "slid ": 6602,
      "did not know what to do.\n": 6603,
      "instead": 6604,
      "Don't be scared": 6605,
      "people in the town ": 6606,
      "figure ": 6607,
      "?”\n": 6608,
      "Rea": 6609,
      "hunt": 6610,
      "pour": 6611,
      ". U": 6612,
      "to ad": 6613,
      "was excited and ": 6614,
      "answer": 6615,
      "se.\n": 6616,
      "said, \"Lily, ": 6617,
      ". It": 6618,
      "gets ": 6619,
      "so they ": 6620,
      "cabin": 6621,
      "!\" His mom ": 6622,
      "saw a little bird ": 6623,
      "did not": 6624,
      "had a friend named ": 6625,
      "One day, a small ": 6626,
      "loved to run and ": 6627,
      "something special ": 6628,
      "smiled and said, “": 6629,
      "mosqui": 6630,
      "ran as fast": 6631,
      "they ar": 6632,
      "thanked his ": 6633,
      " about his ": 6634,
      "feeling": 6635,
      "cake was ": 6636,
      "for help.\n": 6637,
      "went home, ": 6638,
      "had a great day ": 6639,
      "went to the park to play": 6640,
      "clean up": 6641,
      "asked her mom ": 6642,
      "had fun and ": 6643,
      "shelf ": 6644,
      "crawl": 6645,
      "stories": 6646,
      "finding ": 6647,
      ". Now, the ": 6648,
      "threw it ": 6649,
      "thought of a plan": 6650,
      "told him, \"": 6651,
      "quarrel": 6652,
      "cen": 6653,
      "e! ": 6654,
      "gri": 6655,
      "sn": 6656,
      "he heard a ": 6657,
      "er to ": 6658,
      "does": 6659,
      "lean": 6660,
      "sh and ": 6661,
      "net ": 6662,
      "play all day": 6663,
      "se the ": 6664,
      "task": 6665,
      "labe": 6666,
      ". It will ": 6667,
      "thing.\n": 6668,
      "out from ": 6669,
      "trip ": 6670,
      "saw this and ": 6671,
      "ran after ": 6672,
      "jogg": 6673,
      "scared, but he ": 6674,
      "work.\n": 6675,
      "house. The ": 6676,
      "give you a ": 6677,
      "hurri": 6678,
      "share her ": 6679,
      "surprised. The ": 6680,
      "next to the ": 6681,
      "jumped out of the ": 6682,
      "closed his ": 6683,
      "Once upon a time there were two ": 6684,
      "tasted ": 6685,
      "pond. The ": 6686,
      "driver": 6687,
      "crazy ": 6688,
      "heavy": 6689,
      "Go away": 6690,
      "strange": 6691,
      "Sally and ": 6692,
      "cheerful ": 6693,
      "looking at the ": 6694,
      "popcorn": 6695,
      "foolish ": 6696,
      "lively ": 6697,
      "yogur": 6698,
      "\"I don't know": 6699,
      "my ask": 6700,
      ". Mommy ": 6701,
      "to play with ": 6702,
      "ing is ": 6703,
      ". The toy ": 6704,
      ". The sun was ": 6705,
      "ext ": 6706,
      "!\" Sara ": 6707,
      "y, the ": 6708,
      "could be ": 6709,
      "one of the ": 6710,
      "find some ": 6711,
      "comb": 6712,
      "pebble": 6713,
      "inside. The ": 6714,
      "Benny ": 6715,
      ", they saw a big ": 6716,
      "where it ": 6717,
      "nice, ": 6718,
      "sheep": 6719,
      "offer": 6720,
      "One day, a little boy named Tim found a ": 6721,
      "!\" said Tim": 6722,
      "But then, something unexpected happened": 6723,
      "to help him ": 6724,
      "stuck in the ": 6725,
      "succe": 6726,
      "berries": 6727,
      "Come on, ": 6728,
      "imagin": 6729,
      "finished": 6730,
      "jungle": 6731,
      "gloomy ": 6732,
      "delicate ": 6733,
      "motorcy": 6734,
      "' ": 6735,
      "heli": 6736,
      "step ": 6737,
      ". It wanted to ": 6738,
      "looked everywhere ": 6739,
      "pala": 6740,
      "Ann": 6741,
      "cheap ": 6742,
      "old lady ": 6743,
      "by herself": 6744,
      "loved to play in the ": 6745,
      "fell down and ": 6746,
      "deliver": 6747,
      "racti": 6748,
      "hungry ": 6749,
      "prov": 6750,
      "As they played": 6751,
      "Amy's ": 6752,
      "showed him": 6753,
      "weak ": 6754,
      "cero": 6755,
      "Ella ": 6756,
      "Miss ": 6757,
      "charming ": 6758,
      "either": 6759,
      "inocero": 6760,
      "helico": 6761,
      "If you ": 6762,
      "bump": 6763,
      "scr": 6764,
      " across the ": 6765,
      "to a": 6766,
      "he wanted to ": 6767,
      "ornam": 6768,
      ". The owl ": 6769,
      "licen": 6770,
      "bed.\n": 6771,
      "separ": 6772,
      "friger": 6773,
      "said, \"You are ": 6774,
      "his toy ": 6775,
      "cart": 6776,
      "The old man ": 6777,
      ", but be careful": 6778,
      "played all day long": 6779,
      "have an ": 6780,
      "shake": 6781,
      "good to ": 6782,
      "alliga": 6783,
      "laughing": 6784,
      "inside to ": 6785,
      "When she ": 6786,
      "rocks and ": 6787,
      "Tom and Mia ": 6788,
      "berry": 6789,
      "hugged and ": 6790,
      "in the sky. The ": 6791,
      "cryst": 6792,
      "delight": 6793,
      "could not find it": 6794,
      "was so happy to have ": 6795,
      "words ": 6796,
      "kindne": 6797,
      "climb it": 6798,
      "sign that ": 6799,
      "in the air and ": 6800,
      "enjoy the ": 6801,
      "dinosaur ": 6802,
      "pizza ": 6803,
      "frigera": 6804,
      "All the ": 6805,
      ", then ": 6806,
      "rop": 6807,
      "playful ": 6808,
      "at and ": 6809,
      "esca": 6810,
      "ould you ": 6811,
      "gol": 6812,
      "for my ": 6813,
      "fauc": 6814,
      "path ": 6815,
      "coming": 6816,
      "friends with ": 6817,
      "tiger ": 6818,
      "chest": 6819,
      "learned that it's ": 6820,
      "books": 6821,
      "took out ": 6822,
      "surprised.\n": 6823,
      "y any": 6824,
      "on the ground. She ": 6825,
      "went home": 6826,
      "flew away ": 6827,
      "anymore.\n": 6828,
      "fighting": 6829,
      ". Li": 6830,
      "close to ": 6831,
      "woke up and ": 6832,
      "dead ": 6833,
      "shook his ": 6834,
      "showed it to ": 6835,
      ". In this ": 6836,
      "Car": 6837,
      "ust": 6838,
      "vend": 6839,
      ", Ben": 6840,
      "refrigera": 6841,
      "nosy ": 6842,
      "went out to ": 6843,
      "! But ": 6844,
      ". It had a ": 6845,
      "gira": 6846,
      "y, so he ": 6847,
      "is a big ": 6848,
      "have any ": 6849,
      "reali": 6850,
      "when we ": 6851,
      "Mommy and ": 6852,
      "dog. They ": 6853,
      "dog and the ": 6854,
      "Bobby ": 6855,
      "by himself": 6856,
      ", and the bird ": 6857,
      "dog named Spot ": 6858,
      "earth": 6859,
      "sharing and ": 6860,
      "two": 6861,
      "two, ": 6862,
      "brick": 6863,
      "place where ": 6864,
      "friend, a small ": 6865,
      "go to the park ": 6866,
      "steal": 6867,
      "llie ": 6868,
      "As they played, ": 6869,
      "was playing with her ": 6870,
      "vail": 6871,
      "!\" he said": 6872,
      "circle ": 6873,
      "value ": 6874,
      "police ": 6875,
      "market": 6876,
      "record ": 6877,
      "rhinocero": 6878,
      "Every ": 6879,
      "Sop": 6880,
      "s on ": 6881,
      " a lot": 6882,
      "rode ": 6883,
      "attic": 6884,
      "she saw a ": 6885,
      "were both ": 6886,
      "her toy ": 6887,
      "! A ": 6888,
      "was very big and ": 6889,
      "came over": 6890,
      "little girl who ": 6891,
      "saw some ": 6892,
      "Momo": 6893,
      "clock": 6894,
      "clock ": 6895,
      " and said, \"Yes, ": 6896,
      " and said, \"Thank you, ": 6897,
      "man who ": 6898,
      "Let's": 6899,
      "Let’s ": 6900,
      "get it": 6901,
      "guess ": 6902,
      "thought it was very ": 6903,
      "picks ": 6904,
      "called her ": 6905,
      "wagged its ": 6906,
      "played and laughed ": 6907,
      "mattre": 6908,
      "medicin": 6909,
      "\". \n": 6910,
      "From that day on, the ": 6911,
      "oft": 6912,
      "uch": 6913,
      "was now ": 6914,
      ". The rabbit ": 6915,
      "lift ": 6916,
      "up high": 6917,
      "big tree ": 6918,
      ", and it was ": 6919,
      "was very excited to ": 6920,
      "was so happy, ": 6921,
      "tray": 6922,
      "flower and ": 6923,
      "ask ": 6924,
      "clown ": 6925,
      " home": 6926,
      "if they could ": 6927,
      "books ": 6928,
      "shark ": 6929,
      "what's ": 6930,
      "walked up to the ": 6931,
      "garden and ": 6932,
      "! I can ": 6933,
      ". One day, he saw a big ": 6934,
      "frog named ": 6935,
      "miss ": 6936,
      "glad you ": 6937,
      "?\" the ": 6938,
      "mixed ": 6939,
      "picked the ": 6940,
      "has many ": 6941,
      "useful ": 6942,
      "televis": 6943,
      "grown": 6944,
      ", there were many ": 6945,
      "said, \"I don't know": 6946,
      "impressive ": 6947,
      "\"That ": 6948,
      "Pipp": 6949,
      "or the ": 6950,
      "orable ": 6951,
      "sell": 6952,
      "chur": 6953,
      "atch ": 6954,
      "The rabbit ": 6955,
      "so many ": 6956,
      "I was ": 6957,
      "Tim tried to ": 6958,
      "tag": 6959,
      ".\" Ben ": 6960,
      "Lily. He ": 6961,
      "when it ": 6962,
      "shows ": 6963,
      "even though ": 6964,
      "Anna, ": 6965,
      ". It is very ": 6966,
      "One day, a little girl named Amy ": 6967,
      ". Tommy ": 6968,
      "on the floor and ": 6969,
      "picked it up ": 6970,
      "serve ": 6971,
      "carefull": 6972,
      "zoom ": 6973,
      "under her ": 6974,
      "told him to ": 6975,
      "what are you do": 6976,
      "cake.\n": 6977,
      "sandwich": 6978,
      "mistak": 6979,
      "After a ": 6980,
      "dar": 6981,
      "pou": 6982,
      ", Sam": 6983,
      "hamm": 6984,
      "was not": 6985,
      ". The people ": 6986,
      ". She knew ": 6987,
      "baby": 6988,
      "shou": 6989,
      "played the ": 6990,
      "cage ": 6991,
      "had a good ": 6992,
      "out a big ": 6993,
      "like you": 6994,
      "all his ": 6995,
      "Lucy, ": 6996,
      "when they were ": 6997,
      "big, red ": 6998,
      "too small": 6999,
      "clever": 7000,
      "bracele": 7001,
      "Sue's mom ": 7002,
      ", she saw a ": 7003,
      "animals and ": 7004,
      "nodded": 7005,
      "clap": 7006,
      " adventur": 7007,
      "in the sky. He ": 7008,
      "sunny day": 7009,
      "miner": 7010,
      "sorry to the ": 7011,
      ".\" They both ": 7012,
      "had a fun day.\n": 7013,
      "ever seen": 7014,
      "brought the ": 7015,
      "going to the ": 7016,
      "never seen a ": 7017,
      "holding ": 7018,
      "This is my ": 7019,
      "Sara and Tom ": 7020,
      "distant ": 7021,
      "polish": 7022,
      "wolf": 7023,
      "finishe": 7024,
      "judge ": 7025,
      "eventually ": 7026,
      "cobwe": 7027,
      "Al": 7028,
      "By": 7029,
      "Did ": 7030,
      "fan ": 7031,
      "rue ": 7032,
      ". The little bird ": 7033,
      "ing a big ": 7034,
      "said, \"I'm ": 7035,
      "little boy": 7036,
      "The moral of the story is: ": 7037,
      "was very sad.\n": 7038,
      "cover ": 7039,
      "played a ": 7040,
      "played all ": 7041,
      "for your ": 7042,
      ".\" Lucy ": 7043,
      "hook": 7044,
      "was so excited ": 7045,
      "them the ": 7046,
      "friends forever.\n": 7047,
      "sunflower ": 7048,
      "Sue.\n": 7049,
      "became friends": 7050,
      "hears ": 7051,
      "wardro": 7052,
      "tree with a ": 7053,
      "love and ": 7054,
      "nicel": 7055,
      "play with the ball": 7056,
      "became good friends. They ": 7057,
      "go to the park": 7058,
      "\"Okay, ": 7059,
      ". They were very happy.\n": 7060,
      "asked his mom ": 7061,
      "swim and ": 7062,
      "teacher": 7063,
      "bathtu": 7064,
      "queen": 7065,
      "Emily ": 7066,
      "patient ": 7067,
      "Finally, the ": 7068,
      "brush ": 7069,
      ". Inside the box": 7070,
      "respect": 7071,
      "stuck in a tree": 7072,
      "ice-cream": 7073,
      "managed to ": 7074,
      "mer": 7075,
      "ostri": 7076,
      "pa ": 7077,
      "pant": 7078,
      "ser ": 7079,
      "sing and ": 7080,
      "s, and the ": 7081,
      "sink": 7082,
      "vol": 7083,
      "wast": 7084,
      "enthu": 7085,
      "was red and ": 7086,
      ". The bunny ": 7087,
      "isto": 7088,
      ".\" And ": 7089,
      "father ": 7090,
      "out, \"": 7091,
      "hot and ": 7092,
      "liked to play with ": 7093,
      "put some ": 7094,
      "dig": 7095,
      "decide to ": 7096,
      "ran away.\n": 7097,
      "sill": 7098,
      "get it ": 7099,
      "went to sleep": 7100,
      "friend and ": 7101,
      "share their ": 7102,
      "Mia, ": 7103,
      "Once upon a time, there was a little boy named Tim. He ": 7104,
      "wood ": 7105,
      "iglo": 7106,
      "go home and ": 7107,
      "flew high ": 7108,
      "held it ": 7109,
      "sometimes": 7110,
      "candle": 7111,
      "napkin": 7112,
      "basket ": 7113,
      "dull ": 7114,
      "squash ": 7115,
      "enthusi": 7116,
      "-a": 7117,
      "Cat ": 7118,
      "Will ": 7119,
      "glue ": 7120,
      "inse": 7121,
      "had": 7122,
      ". He started to ": 7123,
      "with all the ": 7124,
      "magaz": 7125,
      "very happy": 7126,
      "big fish ": 7127,
      "were sad": 7128,
      "One day, Sue ": 7129,
      "coat ": 7130,
      "like it ": 7131,
      "sport": 7132,
      "box. He ": 7133,
      "box. She ": 7134,
      "them. The ": 7135,
      "says, ": 7136,
      "found a new ": 7137,
      "bird. They ": 7138,
      " and the dog ": 7139,
      "laugh ": 7140,
      "got ther": 7141,
      " again. They ": 7142,
      "don't want to ": 7143,
      "was sad, but she ": 7144,
      "!\" The bird ": 7145,
      "go home ": 7146,
      "At the end of the ": 7147,
      "put it in the ": 7148,
      "have fun and ": 7149,
      ". Every day, she would ": 7150,
      "shook her ": 7151,
      "rubb": 7152,
      "reliable ": 7153,
      " as they could": 7154,
      "saw a big tree with a ": 7155,
      "pumpkin": 7156,
      "chased the ": 7157,
      "templ": 7158,
      "pigeon ": 7159,
      "saved the ": 7160,
      "it?\"\n": 7161,
      "bicy": 7162,
      "being a ": 7163,
      "they started to ": 7164,
      ", but Tim ": 7165,
      "but a ": 7166,
      "felt better and ": 7167,
      "?\" Max ": 7168,
      "musta": 7169,
      ". One day, Lily ": 7170,
      "page": 7171,
      "obj": 7172,
      "something bad ": 7173,
      "here, ": 7174,
      "smiled and hugged ": 7175,
      "big, red ball": 7176,
      "too much": 7177,
      "hug and ": 7178,
      "every time ": 7179,
      "suddenly, ": 7180,
      "When he ": 7181,
      "for the rest of the ": 7182,
      ". His name was ": 7183,
      "ed about the ": 7184,
      "ed a lot": 7185,
      "lived in a small ": 7186,
      "Look ": 7187,
      "jumped into the ": 7188,
      " angry ": 7189,
      "marri": 7190,
      "looked around the ": 7191,
      "jeep": 7192,
      "stories ": 7193,
      "machin": 7194,
      "bottle of ": 7195,
      " as he could": 7196,
      "stupid": 7197,
      "stupid ": 7198,
      "uncomfortable": 7199,
      "fragile ": 7200,
      "mad at ": 7201,
      "cran": 7202,
      "ies": 7203,
      "olly ": 7204,
      "oak ": 7205,
      "pine ": 7206,
      "pisto": 7207,
      "test ": 7208,
      "ed some ": 7209,
      "enta": 7210,
      "encoura": 7211,
      ". That's ": 7212,
      "was surprised and ": 7213,
      ". The little boy ": 7214,
      ". The baby ": 7215,
      "exer": 7216,
      "time. They ": 7217,
      "raven ": 7218,
      "went inside the ": 7219,
      "help him": 7220,
      "! S": 7221,
      "! I am ": 7222,
      "pocket and ": 7223,
      "laz": 7224,
      "came a": 7225,
      ". Tim said, \"": 7226,
      "fun things ": 7227,
      "what she ": 7228,
      "clear ": 7229,
      "head. He ": 7230,
      "far away ": 7231,
      " her.\n": 7232,
      "Kitty": 7233,
      "talking": 7234,
      "walked around the ": 7235,
      "next time": 7236,
      "impro": 7237,
      "food.\n": 7238,
      "messa": 7239,
      "doll and ": 7240,
      "on it. The ": 7241,
      "farmer": 7242,
      "adventure": 7243,
      "candy": 7244,
      "pick up the ": 7245,
      "all day and ": 7246,
      "desser": 7247,
      "lunch ": 7248,
      "needed help": 7249,
      "never seen": 7250,
      "everywhere": 7251,
      "When they got to the ": 7252,
      "I am a magic ": 7253,
      "bitter ": 7254,
      "clumsy ": 7255,
      "brown and ": 7256,
      "little": 7257,
      "spent the ": 7258,
      "\"But ": 7259,
      "Tob": 7260,
      "fough": 7261,
      "gone.\n": 7262,
      "lum": 7263,
      ". John ": 7264,
      "theat": 7265,
      ". He says ": 7266,
      "time. The ": 7267,
      "cars": 7268,
      "cart ": 7269,
      "going": 7270,
      "goal": 7271,
      "mommy and ": 7272,
      "go back to the ": 7273,
      "toy gun": 7274,
      "your name": 7275,
      "Lily and her ": 7276,
      "chess ": 7277,
      "rule": 7278,
      "Once upon a time, there was a little girl named Lily. Lily ": 7279,
      "So, the ": 7280,
      "having fun ": 7281,
      "was so happy. She ": 7282,
      "stud": 7283,
      "gentle": 7284,
      "y anymore.\n": 7285,
      "village ": 7286,
      ",\" he said. \"": 7287,
      "sugge": 7288,
      "went back to his ": 7289,
      "caterpillar": 7290,
      "skipped ": 7291,
      "Good job, ": 7292,
      "?\" Lily asked.\n": 7293,
      "ice-cream ": 7294,
      "cheese ": 7295,
      "troph": 7296,
      "volcan": 7297,
      "toa": 7298,
      "env": 7299,
      "load ": 7300,
      ". The wind ": 7301,
      "to the ground": 7302,
      "went to a big ": 7303,
      "Tim started to ": 7304,
      "be a ": 7305,
      "found his ": 7306,
      "Sammy ": 7307,
      "too. They all ": 7308,
      "hero ": 7309,
      "pean": 7310,
      "knew they ": 7311,
      "knew they would ": 7312,
      "big, friendly ": 7313,
      "happy to see the ": 7314,
      "way home": 7315,
      "to be careful": 7316,
      "smiled and said, \"That's ": 7317,
      "forest.\n": 7318,
      "closed the ": 7319,
      "yummy treat": 7320,
      "bug. The bug ": 7321,
      "cookies and ": 7322,
      "pond.\n": 7323,
      "able to ": 7324,
      "dreamed ": 7325,
      "patient and ": 7326,
      "collect ": 7327,
      "top of the hill": 7328,
      "Sally. Sally ": 7329,
      "crocodile ": 7330,
      "mill": 7331,
      "those ": 7332,
      "ous. He ": 7333,
      "save the ": 7334,
      "One day, Spot ": 7335,
      ", but I ": 7336,
      "fair ": 7337,
      " ancient ": 7338,
      "made their ": 7339,
      ", the bird ": 7340,
      "bird, \"": 7341,
      "laughed as ": 7342,
      ",\" Mia ": 7343,
      "play with it.\n": 7344,
      "best friend": 7345,
      "runs": 7346,
      "Ben. Ben ": 7347,
      "get some ": 7348,
      "smiled and said, \"You're welcome, ": 7349,
      "window ": 7350,
      " about her ": 7351,
      "shark": 7352,
      "threw": 7353,
      "jumped up and ": 7354,
      "Once upon a time, there was a little girl named Mia. Mia ": 7355,
      "snack ": 7356,
      "the best day ": 7357,
      " anymore. They ": 7358,
      "under the tree": 7359,
      "enjoyed their ": 7360,
      "dishe": 7361,
      " at all": 7362,
      "why the ": 7363,
      "comfortable ": 7364,
      "closer to ": 7365,
      "screamed and ": 7366,
      "wind blew": 7367,
      "shampo": 7368,
      "building": 7369,
      "under a big tree": 7370,
      "ladder": 7371,
      "neighb": 7372,
      "disgusting ": 7373,
      "dolphin ": 7374,
      " afraid ": 7375,
      "so, ": 7376,
      ", not ": 7377,
      " and wanted to ": 7378,
      "remind": 7379,
      "with him ": 7380,
      "live": 7381,
      "big red ball": 7382,
      "car.\n": 7383,
      "in the town ": 7384,
      "frame ": 7385,
      "like this ": 7386,
      "felt sad.\n": 7387,
      "pian": 7388,
      "fold ": 7389,
      "go on the ": 7390,
      "saw them ": 7391,
      "boy named Tim": 7392,
      "too much ": 7393,
      "they were done, ": 7394,
      ", they saw a ": 7395,
      "ed away ": 7396,
      ".\" The dog ": 7397,
      "cleaned ": 7398,
      "bread ": 7399,
      "bread and ": 7400,
      "Fluffy and ": 7401,
      "waited and ": 7402,
      "was so happy! She ": 7403,
      "One sunny day, the ": 7404,
      " around, ": 7405,
      "change": 7406,
      "univer": 7407,
      "gifted ": 7408,
      "Bobo. Bobo ": 7409,
      "opened it and ": 7410,
      "fell asleep": 7411,
      "Popp": 7412,
      "creative ": 7413,
      "pumpkin ": 7414,
      "bulb ": 7415,
      "diamo": 7416,
      "gorilla ": 7417,
      "'d ": 7418,
      ", always ": 7419,
      "Bet": 7420,
      "ce, ": 7421,
      "far ": 7422,
      "ian ": 7423,
      "me the ": 7424,
      "nu": 7425,
      "otter ": 7426,
      "pen ": 7427,
      ". R": 7428,
      ". The lion ": 7429,
      "it is a ": 7430,
      "were happy. They ": 7431,
      "fun!\"\n": 7432,
      "call ": 7433,
      "cap ": 7434,
      "trees ": 7435,
      "played together.\n": 7436,
      "hock": 7437,
      "out of his ": 7438,
      "tray ": 7439,
      "box. The box ": 7440,
      "took him ": 7441,
      "dogs ": 7442,
      "thought that ": 7443,
      " and said, \"Mom, ": 7444,
      "opened her ": 7445,
      " home and ": 7446,
      ". They played together ": 7447,
      "in the park. He ": 7448,
      "talked to ": 7449,
      "nodded. They ": 7450,
      "sleepy ": 7451,
      "clothes ": 7452,
      "free": 7453,
      "sailor ": 7454,
      "truth": 7455,
      "wrap ": 7456,
      "play a game ": 7457,
      "rubber ": 7458,
      "harmless ": 7459,
      "hat and a ": 7460,
      "At the park, ": 7461,
      "silver ": 7462,
      "band-a": 7463,
      "popular ": 7464,
      "librar": 7465,
      "biggest ": 7466,
      "Help": 7467,
      "Spi": 7468,
      "blou": 7469,
      "kang": 7470,
      "oat": 7471,
      "s. And ": 7472,
      "s. They all ": 7473,
      "inc": 7474,
      "to find a ": 7475,
      " and his friends ": 7476,
      "go.\n": 7477,
      "Tim went to ": 7478,
      "One day, Max ": 7479,
      "looked like a ": 7480,
      "spend ": 7481,
      "shadow ": 7482,
      "pas": 7483,
      "They both ": 7484,
      "play with us": 7485,
      "mole ": 7486,
      "hear a ": 7487,
      "juice": 7488,
      "inside, ": 7489,
      "than the ": 7490,
      "hard.\n": 7491,
      "can hurt ": 7492,
      "long, ": 7493,
      "learned that it was ": 7494,
      "wind": 7495,
      "couldn't": 7496,
      " an idea": 7497,
      "called a ": 7498,
      ". From that day on, they ": 7499,
      "bread": 7500,
      "everyone happy.\n": 7501,
      "wings and ": 7502,
      "Max and Lily ": 7503,
      "learn to ": 7504,
      "went for a walk. He saw a big ": 7505,
      "spring ": 7506,
      ",\" she said.\n": 7507,
      "woke up ": 7508,
      "clouds ": 7509,
      "road ": 7510,
      "up, up, ": 7511,
      "lay down ": 7512,
      "climbed the tree and ": 7513,
      "sym": 7514,
      "practiced ": 7515,
      "fish named Fin": 7516,
      "leopard ": 7517,
      "spilled ": 7518,
      "poured ": 7519,
      "kangar": 7520,
      "\"Sure, ": 7521,
      "ge to ": 7522,
      "little cat ": 7523,
      "little fish ": 7524,
      "to the other ": 7525,
      "wanted to make a ": 7526,
      "! Now ": 7527,
      "sku": 7528,
      "tree, but ": 7529,
      "did the ": 7530,
      "said the ": 7531,
      "Tom's mom ": 7532,
      "hoop": 7533,
      "Sam.\n": 7534,
      "shadow": 7535,
      "tree with ": 7536,
      ". You have ": 7537,
      "house. He ": 7538,
      "drew ": 7539,
      "give me ": 7540,
      "squar": 7541,
      "head.\n": 7542,
      ". Mark ": 7543,
      "where she ": 7544,
      "closed her ": 7545,
      "party.\n": 7546,
      "until it ": 7547,
      "did not know what ": 7548,
      "igz": 7549,
      ", but it was not ": 7550,
      "was very happy and said, \"Thank you, ": 7551,
      "One day, a little boy named Tim went to the park with his mom": 7552,
      "grabbed a ": 7553,
      "asked, \"Can I ": 7554,
      "special.\n": 7555,
      "bathro": 7556,
      ". I am a ": 7557,
      "langu": 7558,
      "school ": 7559,
      "see what it was": 7560,
      "Lucy's mom ": 7561,
      "lamp ": 7562,
      "hello ": 7563,
      "jar of ": 7564,
      "celebrat": 7565,
      "But, ": 7566,
      "club": 7567,
      "felt bad for ": 7568,
      "super": 7569,
      "helples": 7570,
      "modern ": 7571,
      "middle of the ": 7572,
      "Did you ": 7573,
      "exerci": 7574,
      "symbo": 7575,
      "\"I'm ": 7576,
      "snow ": 7577,
      "hese ": 7578,
      ". The train ": 7579,
      "may ": 7580,
      "want a ": 7581,
      "they can ": 7582,
      "goat": 7583,
      ", and Tom ": 7584,
      "Tim had an idea. He ": 7585,
      "case ": 7586,
      "!\" Spot ": 7587,
      "cop ": 7588,
      "came running ": 7589,
      "Tommy": 7590,
      "on my ": 7591,
      "toy. He ": 7592,
      "make him ": 7593,
      "memor": 7594,
      "ughter": 7595,
      "with his new ": 7596,
      "say.\n": 7597,
      ". It was red and ": 7598,
      "fish.\n": 7599,
      "were very happy and ": 7600,
      "! I found a ": 7601,
      "sorry. He ": 7602,
      "played together. They ": 7603,
      "store and ": 7604,
      ". One day, she found a ": 7605,
      "to help the ": 7606,
      "came": 7607,
      "flag ": 7608,
      "thank you ": 7609,
      "with him.\n": 7610,
      "trust": 7611,
      "shapes": 7612,
      "for helping me": 7613,
      "Mummy ": 7614,
      "Ella": 7615,
      "pizza": 7616,
      "spoiled ": 7617,
      "stamp": 7618,
      "if the ": 7619,
      "bent ": 7620,
      "cli": 7621,
      "fluffy ": 7622,
      "was over": 7623,
      ". She asked ": 7624,
      "it will ": 7625,
      "for all the ": 7626,
      "friendly and ": 7627,
      "were the best of friends.\n": 7628,
      "play too": 7629,
      ", and Max ": 7630,
      "Tim saw a big ": 7631,
      ". \"You ": 7632,
      "one day": 7633,
      "find a big ": 7634,
      "saying ": 7635,
      "lived on a ": 7636,
      "birds and ": 7637,
      "became friends.\n": 7638,
      "got home, ": 7639,
      "opened his ": 7640,
      " again. He ": 7641,
      "note": 7642,
      "this time, ": 7643,
      "As she ": 7644,
      "toys in the ": 7645,
      "game.\n": 7646,
      ". When it was time to go home, ": 7647,
      "crib": 7648,
      "until she ": 7649,
      ". You are a ": 7650,
      ". You are my ": 7651,
      "worked hard ": 7652,
      "lesson and ": 7653,
      "find a way to ": 7654,
      "was happy and said, \"Thank you, ": 7655,
      "lizard ": 7656,
      "moved the ": 7657,
      "mom, \"Mom, ": 7658,
      "angry ": 7659,
      "desk": 7660,
      "troubled ": 7661,
      "dog, Spot, ": 7662,
      "voice.\n": 7663,
      "made sure to ": 7664,
      "takes the ": 7665,
      "clapped their ": 7666,
      "cidenta": 7667,
      "vocado": 7668,
      "tried again and ": 7669,
      " hope ": 7670,
      "grown-": 7671,
      "cidentally ": 7672,
      "w, ": 7673,
      "ants ": 7674,
      ". He told ": 7675,
      ". They see ": 7676,
      "it every day": 7677,
      "fill ": 7678,
      "help him ": 7679,
      "said they were ": 7680,
      "elp ": 7681,
      "felt much ": 7682,
      "pale ": 7683,
      "go back to ": 7684,
      "laugh.\n": 7685,
      "play with them": 7686,
      "ran to his ": 7687,
      "more careful": 7688,
      "jog ": 7689,
      "struc": 7690,
      "to be a ": 7691,
      "travel": 7692,
      "picnic": 7693,
      "talked ": 7694,
      "broke the ": 7695,
      "love you, ": 7696,
      "next day, ": 7697,
      "trying ": 7698,
      "This is a ": 7699,
      "Once upon a time, there was a little boy named Tim. Tim loved to ": 7700,
      "better to ": 7701,
      "stop the ": 7702,
      "care of the ": 7703,
      "for him.\n": 7704,
      ". Tom and Sue ": 7705,
      "gether, ": 7706,
      "melt": 7707,
      "banana ": 7708,
      "screen": 7709,
      "puzzle ": 7710,
      "protec": 7711,
      "valuable ": 7712,
      "repair": 7713,
      "belong to ": 7714,
      "met a new friend named ": 7715,
      ".” ": 7716,
      "oy": 7717,
      "rat ": 7718,
      "sum": 7719,
      "tight and ": 7720,
      "ed with ": 7721,
      "it away": 7722,
      "ed. Tim ": 7723,
      "escap": 7724,
      "thermom": 7725,
      "! My ": 7726,
      "! Do you want to play with me": 7727,
      "skele": 7728,
      "came over and ": 7729,
      ". Blue ": 7730,
      "ball, ": 7731,
      "felt sorry ": 7732,
      "One day, a little bird ": 7733,
      ". But then": 7734,
      "trump": 7735,
      "some of the ": 7736,
      "we need to ": 7737,
      ". They were best ": 7738,
      "saw the big ": 7739,
      "share with ": 7740,
      "picked up a ": 7741,
      "liked to play in the ": 7742,
      "was sad. She ": 7743,
      "forest, there lived a ": 7744,
      "with their new ": 7745,
      "steak ": 7746,
      "boat and ": 7747,
      ". When": 7748,
      "for himself": 7749,
      "wheel ": 7750,
      "distan": 7751,
      "smooth": 7752,
      "Tiny ": 7753,
      ". Instead": 7754,
      ". Thank you for ": 7755,
      "back and forth": 7756,
      "came across": 7757,
      "skeleto": 7758,
      "\"Y": 7759,
      "Bun": 7760,
      "Fre": 7761,
      "honest ": 7762,
      "s. Tom ": 7763,
      "yg": 7764,
      "tory": 7765,
      "imp ": 7766,
      "was surprised": 7767,
      ". They started to ": 7768,
      ". The rain ": 7769,
      "happen ": 7770,
      "very well": 7771,
      "forgot to ": 7772,
      "little mouse": 7773,
      "gold": 7774,
      "play the ": 7775,
      "be my friend": 7776,
      "had a pretty ": 7777,
      "did not want ": 7778,
      "said they ": 7779,
      "Suddenly": 7780,
      "sock ": 7781,
      "daughter": 7782,
      "saw a big tree and ": 7783,
      "decided to take a ": 7784,
      ". The bird flew ": 7785,
      "take care of ": 7786,
      "things that": 7787,
      "flowers, ": 7788,
      "laughed and played with the ": 7789,
      "cham": 7790,
      "knows ": 7791,
      "door.\n": 7792,
      " house ": 7793,
      "sticks and ": 7794,
      "mess.\n": 7795,
      "became good friends. They played ": 7796,
      "I will help you ": 7797,
      ". One day, he found a ": 7798,
      "had a great day.\n": 7799,
      "missed ": 7800,
      "be careful and ": 7801,
      "\"Help": 7802,
      "lady": 7803,
      "bench and ": 7804,
      ",\" Ben said.\n": 7805,
      "world.\n": 7806,
      "\"Sorry, ": 7807,
      ",\" Tom said.\n": 7808,
      "Zoom": 7809,
      "automob": 7810,
      "cat and a dog ": 7811,
      " agreed, and they ": 7812,
      "muffin": 7813,
      "lollipop": 7814,
      "took a deep breath and ": 7815,
      "\"What ": 7816,
      "dic": 7817,
      "ig ": 7818,
      "port": 7819,
      ", making ": 7820,
      "hall": 7821,
      "uncle ": 7822,
      "said, \"It's ": 7823,
      "laun": 7824,
      ", but her mom ": 7825,
      ". Billy ": 7826,
      "their friends ": 7827,
      ".\" Amy ": 7828,
      "smile. They ": 7829,
      "thing to do": 7830,
      "good friends.\n": 7831,
      " and said, \"Hello, ": 7832,
      "inside. They ": 7833,
      "gave her ": 7834,
      "fast.\n": 7835,
      "When Tim ": 7836,
      "things can ": 7837,
      "clay ": 7838,
      "each other's ": 7839,
      "turned the ": 7840,
      "color ": 7841,
      "give it ": 7842,
      "kind of ": 7843,
      "in the park. One day, they ": 7844,
      "guard ": 7845,
      "house with a ": 7846,
      "three": 7847,
      "mess and ": 7848,
      "wrong ": 7849,
      "was so happy! ": 7850,
      "played together all day": 7851,
      "tired. He ": 7852,
      "listen to your ": 7853,
      "Dolly ": 7854,
      " hot ": 7855,
      "match ": 7856,
      "waited for ": 7857,
      "with her.\n": 7858,
      "space ": 7859,
      "Lila and Ben ": 7860,
      "ffic": 7861,
      "hide and seek ": 7862,
      "celebrate ": 7863,
      "nervous": 7864,
      "disappoint": 7865,
      " aunt ": 7866,
      "enthusiast": 7867,
      "diction": 7868,
      "Dan": 7869,
      "ring ": 7870,
      "ed around the ": 7871,
      "ous.\n": 7872,
      "restore ": 7873,
      "wishes ": 7874,
      "statu": 7875,
      ". He wanted ": 7876,
      ". He thought, \"": 7877,
      "behave ": 7878,
      "bed. She ": 7879,
      "in the mirror": 7880,
      ". \"O": 7881,
      "make sure ": 7882,
      "try and ": 7883,
      "paw ": 7884,
      "pack ": 7885,
      "pasta": 7886,
      "outside, ": 7887,
      "outside. They ": 7888,
      "room. They ": 7889,
      "weep": 7890,
      "work and ": 7891,
      "house. They ": 7892,
      "hands. They ": 7893,
      "where they ": 7894,
      "looked at her ": 7895,
      "made a loud ": 7896,
      "how much ": 7897,
      ". They are not ": 7898,
      "cat named Fluffy. Fluffy ": 7899,
      "Anna's ": 7900,
      "said, \"Yes, please": 7901,
      "clean.\n": 7902,
      "cleaned the ": 7903,
      "sat down": 7904,
      "Bob was ": 7905,
      "seri": 7906,
      "learn new ": 7907,
      "pick the ": 7908,
      "ducks ": 7909,
      "saw his friend, ": 7910,
      "set, ": 7911,
      "One day, a boy named Tim found a ": 7912,
      "need help": 7913,
      "Billy": 7914,
      "pillow ": 7915,
      "dog, Spot": 7916,
      "village": 7917,
      "shrimp ": 7918,
      "collec": 7919,
      "kick the ": 7920,
      "wise old owl ": 7921,
      "viol": 7922,
      "3 year old ": 7923,
      "part of the ": 7924,
      "ext time, ": 7925,
      "Qu": 7926,
      "ave ": 7927,
      "after": 7928,
      "bin ": 7929,
      "e!\"\n": 7930,
      "toil": 7931,
      ", who ": 7932,
      "was glad ": 7933,
      "do the ": 7934,
      ". He was so ": 7935,
      ". She was so ": 7936,
      ". She put the ": 7937,
      "board and ": 7938,
      "eas": 7939,
      "!\" they ": 7940,
      "smok": 7941,
      "could see ": 7942,
      ".\" Spot ": 7943,
      ". \"Oh no": 7944,
      "oper": 7945,
      "pushe": 7946,
      "sun.\n": 7947,
      ",\" mom ": 7948,
      "little girl named Sue ": 7949,
      "decided to be ": 7950,
      "get out": 7951,
      " all around the ": 7952,
      ". You need to ": 7953,
      "to be careful ": 7954,
      "made a loud noise": 7955,
      "shoes ": 7956,
      "did not know what it was": 7957,
      "e, but she ": 7958,
      "waited": 7959,
      "pictures and ": 7960,
      "to help her ": 7961,
      "visit the ": 7962,
      "gentle and ": 7963,
      "clothes": 7964,
      "picking ": 7965,
      ". There was a ": 7966,
      "thought it would be fun ": 7967,
      ",\" she said": 7968,
      "morning ": 7969,
      "can make you ": 7970,
      "fence and ": 7971,
      "play a game": 7972,
      "crawl ": 7973,
      "What are you doing ": 7974,
      "said, \"I can help you ": 7975,
      "Wow! ": 7976,
      "made him feel ": 7977,
      "embarrasse": 7978,
      "pirate ": 7979,
      "museum": 7980,
      ". Come on, ": 7981,
      "envious ": 7982,
      "\"Are you ": 7983,
      "?” ": 7984,
      "mild ": 7985,
      "rom that ": 7986,
      "witch ": 7987,
      "tom ": 7988,
      ". How ": 7989,
      ". They had so much fun ": 7990,
      "it had ": 7991,
      "boy and the ": 7992,
      "said, \"Tom, ": 7993,
      "said, \"That's ": 7994,
      "that her ": 7995,
      "The bunny ": 7996,
      "tape ": 7997,
      ", a small ": 7998,
      "mom the ": 7999,
      ". \"Can I ": 8000,
      "?\" Mom": 8001,
      "help you, ": 8002,
      "put on their ": 8003,
      " and said, \"Wow, ": 8004,
      "got scared and ": 8005,
      "for a little ": 8006,
      "jumping ": 8007,
      "sub": 8008,
      "show the ": 8009,
      "get his ": 8010,
      "strugg": 8011,
      "nice lady ": 8012,
      "Tom and Max ": 8013,
      ". It was a very ": 8014,
      "picked a ": 8015,
      "rug ": 8016,
      "people who ": 8017,
      "until it was ": 8018,
      "until it was time to go hom": 8019,
      "show you": 8020,
      "ran to her ": 8021,
      " around.\n": 8022,
      "light and ": 8023,
      "What is that": 8024,
      "kissed ": 8025,
      "grab ": 8026,
      "was angry and ": 8027,
      ". On ": 8028,
      "bottom ": 8029,
      "half": 8030,
      "trunk": 8031,
      "drank the ": 8032,
      "hanging ": 8033,
      "shoulder": 8034,
      "ive": 8035,
      "jam ": 8036,
      "me to ": 8037,
      "ed by ": 8038,
      ", mom": 8039,
      "say any": 8040,
      "was feeling ": 8041,
      "itself": 8042,
      " hot": 8043,
      "bill": 8044,
      "shirt ": 8045,
      "forgot ": 8046,
      "time. He ": 8047,
      "that his ": 8048,
      "she heard a ": 8049,
      "wanted to see the ": 8050,
      ", but no one ": 8051,
      "balls ": 8052,
      "too. They both ": 8053,
      "swung ": 8054,
      "floor ": 8055,
      "ball was ": 8056,
      "outside the ": 8057,
      "blew ": 8058,
      " about": 8059,
      "places": 8060,
      "ched": 8061,
      "showed his ": 8062,
      "cudd": 8063,
      ". We should ": 8064,
      "fine ": 8065,
      "surprised. She ": 8066,
      "by a ": 8067,
      "nice. He ": 8068,
      "mess ": 8069,
      "did not know that the ": 8070,
      "fell into the ": 8071,
      ". She said, \"Thank you, ": 8072,
      "played together every day.\n": 8073,
      "Buzz": 8074,
      ", a big dog ": 8075,
      "was happy to see ": 8076,
      " hopped ": 8077,
      "opened it": 8078,
      "deaf ": 8079,
      "melon ": 8080,
      "solve ": 8081,
      "bought the ": 8082,
      "building ": 8083,
      "were best friends. They ": 8084,
      "What's wrong": 8085,
      "learned that it is important to ": 8086,
      "chocolate ": 8087,
      "obedient ": 8088,
      "perform": 8089,
      "stubborn": 8090,
      ",” ": 8091,
      "Mama": 8092,
      "dirt and ": 8093,
      "rend": 8094,
      "vin": 8095,
      "thunder": 8096,
      ". K": 8097,
      "ers ": 8098,
      "sty": 8099,
      "beet": 8100,
      "said, \"Thank you ": 8101,
      "es, and ": 8102,
      "were the best of ": 8103,
      "festi": 8104,
      ", but his mom ": 8105,
      "!\" They all ": 8106,
      "Mag": 8107,
      "bush ": 8108,
      "did not listen to ": 8109,
      "enter": 8110,
      "mule ": 8111,
      "in a small ": 8112,
      ". But then ": 8113,
      "put their ": 8114,
      "others and ": 8115,
      "when she was ": 8116,
      "ball went ": 8117,
      "soap ": 8118,
      "dad and ": 8119,
      " allow": 8120,
      ", he could ": 8121,
      "water. They ": 8122,
      "drop": 8123,
      "family and ": 8124,
      "blocks. They ": 8125,
      "let it ": 8126,
      "boring": 8127,
      "played together all day.\n": 8128,
      "was playing with his ": 8129,
      "Why don't you ": 8130,
      "stopped to ": 8131,
      "Mia and Tom ": 8132,
      "wrapped ": 8133,
      "wore a ": 8134,
      " hurt": 8135,
      ", but then he ": 8136,
      "in its beak": 8137,
      "pencil ": 8138,
      "remembered what ": 8139,
      "frightened ": 8140,
      "rived": 8141,
      "faster and faster": 8142,
      "garage": 8143,
      "Alice ": 8144,
      "hospital": 8145,
      "finished, ": 8146,
      "Boun": 8147,
      "natu": 8148,
      "ssa": 8149,
      "do anything": 8150,
      ". She thought ": 8151,
      "es a big ": 8152,
      "that is ": 8153,
      "cars, ": 8154,
      "white and ": 8155,
      ", and Sue ": 8156,
      "I want ": 8157,
      "! Tim was ": 8158,
      "tape": 8159,
      "came from": 8160,
      "found her ": 8161,
      "made many ": 8162,
      "friends to play with": 8163,
      "her. He ": 8164,
      "who lived in a ": 8165,
      ". I like ": 8166,
      "most": 8167,
      "went to the kitchen and ": 8168,
      "ran after the ": 8169,
      "showing ": 8170,
      "Tim and Spot ": 8171,
      "didn't listen": 8172,
      "from their ": 8173,
      "something unexpected happened.\n": 8174,
      "have a lot of ": 8175,
      "friend, Tom, ": 8176,
      "wanted to help his ": 8177,
      "stadi": 8178,
      "needed a ": 8179,
      "couldn't find ": 8180,
      "girl named Lily ": 8181,
      " adorable ": 8182,
      "on the ground. The ": 8183,
      "? You ": 8184,
      "did not want to be ": 8185,
      "bear. The bear ": 8186,
      "sofa": 8187,
      "curious. He ": 8188,
      "stream": 8189,
      "was happy to have a ": 8190,
      "must be ": 8191,
      "Go away, ": 8192,
      " amazing": 8193,
      "was sad because she ": 8194,
      "worried ": 8195,
      ". All the animals ": 8196,
      ",\" Lily said. \"": 8197,
      ",\" Ben says.\n": 8198,
      "modest ": 8199,
      "seemed to ": 8200,
      "berries ": 8201,
      "sandwich ": 8202,
      "cardboard ": 8203,
      "Luna": 8204,
      "eager to ": 8205,
      "has a big ": 8206,
      "Fro": 8207,
      "ce, there was a ": 8208,
      "flour": 8209,
      "ian": 8210,
      "ppl": 8211,
      "sir": 8212,
      ". Lily and Tom ": 8213,
      "erable ": 8214,
      "was trying to ": 8215,
      "was curious and ": 8216,
      ". He could not ": 8217,
      "bean ": 8218,
      "boot ": 8219,
      "very high": 8220,
      "edge ": 8221,
      "had never ": 8222,
      "rose ": 8223,
      "The little bird ": 8224,
      "but she ": 8225,
      "went inside and ": 8226,
      "helped his ": 8227,
      "poem": 8228,
      "on top": 8229,
      "day of the ": 8230,
      "one day, the ": 8231,
      "sad, ": 8232,
      "playing together": 8233,
      "became friends. They played ": 8234,
      "home. The ": 8235,
      "sort": 8236,
      " alone ": 8237,
      "little boy named Tim": 8238,
      " at the park ": 8239,
      "proud.\n": 8240,
      "watching the ": 8241,
      "watched as the ": 8242,
      "to his friend, ": 8243,
      "toys were ": 8244,
      ".\" The cat ": 8245,
      "twir": 8246,
      "needs ": 8247,
      "! I love ": 8248,
      "with their mom": 8249,
      "was very happy and thanked ": 8250,
      "miserable ": 8251,
      ". I will help you ": 8252,
      "dad's ": 8253,
      ". Suddenly, he ": 8254,
      "do not want to ": 8255,
      "stranger ": 8256,
      "shared his ": 8257,
      "grandpa": 8258,
      "purpl": 8259,
      "mean and ": 8260,
      "wearing a ": 8261,
      "door open": 8262,
      "yours": 8263,
      "pretended to be ": 8264,
      "money": 8265,
      "happy again.\n": 8266,
      "kiss": 8267,
      "wise old owl": 8268,
      "anything ": 8269,
      ". Thank you, ": 8270,
      "At the park, Tim ": 8271,
      "pink and ": 8272,
      "impatient": 8273,
      "what are you doing": 8274,
      "Bye, ": 8275,
      "Jim ": 8276,
      "ge, ": 8277,
      "gum": 8278,
      "ler": 8279,
      "men": 8280,
      "oven ": 8281,
      "sit and ": 8282,
      "sword ": 8283,
      "boo": 8284,
      "chim": 8285,
      "gem": 8286,
      "his friend": 8287,
      "carto": 8288,
      "raz": 8289,
      "feed the ": 8290,
      "! Lily ": 8291,
      "popp": 8292,
      "of this ": 8293,
      "!\" But the ": 8294,
      "Once upon a time, there was a young ": 8295,
      "could have ": 8296,
      "spin ": 8297,
      "one more ": 8298,
      "started to move ": 8299,
      ". But when she ": 8300,
      "see it": 8301,
      "made his ": 8302,
      "learn how to ": 8303,
      "all around the ": 8304,
      "pepper": 8305,
      "sort ": 8306,
      " about a ": 8307,
      "gave him ": 8308,
      "house, there lived a ": 8309,
      "to be kind and ": 8310,
      "hate ": 8311,
      ". They all laughed and ": 8312,
      "traffic": 8313,
      "block ": 8314,
      ". They are very ": 8315,
      "walked up to ": 8316,
      "garden.\n": 8317,
      "favour": 8318,
      "found a big box ": 8319,
      "His dad ": 8320,
      "like the other ": 8321,
      "that she loved very much": 8322,
      "pond. He ": 8323,
      "Then, something unexpected happened": 8324,
      ". I will help you": 8325,
      "not a toy": 8326,
      "took a bit": 8327,
      "words": 8328,
      ". Tim was very happy.\n": 8329,
      "continued ": 8330,
      "Johnny ": 8331,
      "break the ": 8332,
      "disagre": 8333,
      "searched ": 8334,
      "fence ": 8335,
      "wait for the ": 8336,
      "for a long time": 8337,
      ". Then, a ": 8338,
      "One day, a girl named Sue ": 8339,
      "belonged ": 8340,
      "TV ": 8341,
      "normal": 8342,
      "bounced ": 8343,
      "Peter ": 8344,
      "mushroom": 8345,
      "on an adventure": 8346,
      "ghost ": 8347,
      "repeat": 8348,
      "smiled and said, \"Of course, ": 8349,
      "\"Ben, ": 8350,
      "Amy, ": 8351,
      "St": 8352,
      "mec": 8353,
      "to ask": 8354,
      ", Mom": 8355,
      "to stay ": 8356,
      ". They took turns ": 8357,
      "pping ": 8358,
      ". The small ": 8359,
      "said, \"Be careful": 8360,
      "name ": 8361,
      "ed and the ": 8362,
      "Tim always ": 8363,
      "did something ": 8364,
      "smiles. She ": 8365,
      "did not mean to ": 8366,
      "hop ": 8367,
      "meant": 8368,
      ". But first": 8369,
      "walked to ": 8370,
      " all day, ": 8371,
      "knew he had ": 8372,
      "plast": 8373,
      ", they found a ": 8374,
      ". His dad ": 8375,
      "chalk": 8376,
      "drawer": 8377,
      "liked to play outside ": 8378,
      "two of them ": 8379,
      "in the sky ": 8380,
      ". Tim and Spot ": 8381,
      "Jane was ": 8382,
      "!\" The dog ": 8383,
      "y asked her ": 8384,
[...]
